<unk>	0
<s>	0
</s>	0
.	-2.84813
,	-3.06902
▁	-4.18594
▁в	-4.42902
-	-4.62571
▁и	-4.62934
а	-4.72987
▁—	-4.77177
▁«	-4.94936
▁һәм	-5.01974
е	-5.14328
▁на	-5.26617
»	-5.29744
ы	-5.34747
▁с	-5.36634
▁(	-5.38046
▁–	-5.44998
▁В	-5.50392
▁по	-5.61111
н	-5.62763
м	-5.63774
й	-5.64045
и	-5.70533
у	-5.82563
▁менән	-5.89189
:	-5.96321
)	-5.96597
х	-6.05568
о	-6.13342
ов	-6.14771
),	-6.14803
▁“	-6.15167
▁не	-6.25756
ға	-6.26433
▁буйынса	-6.28773
▁С	-6.41242
”	-6.44023
▁өсөн	-6.44759
ом	-6.45457
;	-6.48439
▁к	-6.49806
▁Башҡортостан	-6.50116
▁за	-6.52131
▁из	-6.5327
ның	-6.5398
б	-6.54031
▁тип	-6.57468
го	-6.57494
с	-6.63135
на	-6.65328
▁й	-6.66436
т	-6.70418
▁А	-6.70529
»,	-6.70642
▁что	-6.73051
▁от	-6.73104
я	-6.73815
р	-6.79407
ла	-6.80373
▁бер	-6.80985
ных	-6.83154
▁о	-6.83964
▁для	-6.88122
ой	-6.88813
!	-6.90293
▁а	-6.90687
к	-6.90926
▁Рәсәй	-6.92592
).	-6.93799
▁до	-6.94982
▁М	-6.95255
гә	-6.96595
лы	-6.97552
се	-6.97982
?	-6.99113
▁у	-6.99699
ные	-7.00514
ҙың	-7.01694
А	-7.02903
п	-7.03235
▁К	-7.053
▁Башкортостана	-7.08673
ный	-7.09635
▁уҡ	-7.10535
ка	-7.10641
С	-7.11603
▁при	-7.12258
▁был	-7.12274
▁алып	-7.12655
та	-7.1386
▁республики	-7.14077
▁РБ	-7.14815
▁Башкирии	-7.14873
ного	-7.15028
ся	-7.1552
▁года	-7.17204
М	-7.17432
ҡа	-7.17456
ая	-7.17713
ми	-7.18457
▁По	-7.19728
ной	-7.20231
▁һ	-7.2056
▁На	-7.21107
▁России	-7.21202
▁Өфө	-7.21295
▁И	-7.23411
В	-7.24214
ты	-7.24302
▁1	-7.24372
но	-7.25086
▁дәүләт	-7.25285
тар	-7.2559
ная	-7.25845
▁ла	-7.26665
ки	-7.26672
в	-7.27472
▁Б	-7.27811
▁хәбәр	-7.27959
ю	-7.29235
ен	-7.30546
д	-7.3076
▁республика	-7.31292
ами	-7.31817
И	-7.32204
».	-7.32453
ле	-7.34081
▁ул	-7.34856
▁кеше	-7.36601
тың	-7.3739
▁Башкортостан	-7.38061
ын	-7.38269
▁Р	-7.38617
сы	-7.41611
да	-7.42245
лар	-7.43191
ны	-7.43517
л	-7.4385
ҙы	-7.44286
▁др	-7.45004
ем	-7.45103
ия	-7.45419
▁как	-7.45636
▁Уфе	-7.46158
▁Д	-7.46748
▁году	-7.46756
▁Башҡортостанда	-7.48467
һы	-7.48721
▁2	-7.49473
▁халыҡ	-7.50039
▁итә	-7.50068
...	-7.50343
▁тиклем	-7.51615
ара	-7.53156
▁Был	-7.54656
ет	-7.54781
▁человек	-7.55428
▁18	-7.55818
▁20	-7.56261
▁будет	-7.56949
▁мең	-7.57017
▁его	-7.57391
▁П	-7.57542
▁также	-7.57618
ах	-7.57633
▁тураһында	-7.58325
▁итеү	-7.58528
▁под	-7.58545
ғы	-7.58723
▁рублей	-7.58883
▁баш	-7.58886
Г	-7.60063
ь	-7.61076
▁эш	-7.61619
▁тысяч	-7.62538
▁бар	-7.62551
▁Г	-7.63421
г	-7.64045
▁3	-7.64584
нан	-7.64735
▁Өфөлә	-7.65025
▁йыл	-7.66658
▁яңы	-7.67608
▁ауыл	-7.68475
▁Башҡортостандың	-7.68561
ля	-7.69336
▁Т	-7.70075
▁б	-7.70563
▁со	-7.7072
▁лә	-7.70759
▁шулай	-7.70954
▁булған	-7.71004
ли	-7.71649
ам	-7.7168
К	-7.7175
”,	-7.7199
ым	-7.72067
Р	-7.72137
▁Рөстәм	-7.72849
▁он	-7.73453
▁БР	-7.73632
▁я	-7.74383
Н	-7.74397
▁йй	-7.7479
▁У	-7.749
▁10	-7.75669
те	-7.75861
▁района	-7.76718
▁йылда	-7.77214
нда	-7.77355
ый	-7.77658
з	-7.77958
ей	-7.78552
▁Республики	-7.7867
‐	-7.78837
ого	-7.79489
▁үҙ	-7.79781
ә	-7.79805
"	-7.80206
▁17	-7.80319
▁башҡорт	-7.80717
ным	-7.80849
▁все	-7.80943
ында	-7.81277
▁более	-7.81368
Башинформ	-7.81446
Б	-7.81564
ды	-7.82062
▁этом	-7.82222
▁(“	-7.82323
▁это	-7.82622
ҙа	-7.83058
ий	-7.83259
▁4	-7.83704
—	-7.83706
▁ҡала	-7.8375
дар	-7.83756
▁итте	-7.83856
ский	-7.84066
▁һум	-7.84611
нең	-7.84705
▁иң	-7.8508
▁тине	-7.86088
▁ашыу	-7.86316
▁Рустэм	-7.87351
▁раз	-7.8766
П	-7.88028
▁йылдан	-7.88338
▁ҙур	-7.88422
ии	-7.88966
▁Хәмитов	-7.89041
▁Н	-7.89047
ҡ	-7.89144
ку	-7.89853
▁йылдың	-7.89853
то	-7.89989
▁уның	-7.90163
ҙе	-7.90233
ж	-7.9039
▁Хамитов	-7.90787
ит	-7.9116
▁Как	-7.91339
▁м	-7.9174
▁районы	-7.9177
▁ике	-7.91817
▁Ф	-7.91928
ую	-7.92015
▁5	-7.92143
ш	-7.9229
▁булып	-7.92984
▁об	-7.93411
О	-7.93529
▁да	-7.93913
▁же	-7.93989
не	-7.94206
▁булды	-7.94399
▁Я	-7.94632
▁про	-7.94776
Т	-7.9479
ное	-7.94888
кә	-7.96091
тан	-7.96176
Д	-7.96205
▁күп	-7.96904
▁балалар	-7.97057
▁һуң	-7.97074
▁км	-7.97527
▁Ә	-7.97702
▁их	-7.97784
▁15	-7.98024
ына	-7.98066
▁Ул	-7.98313
▁Республика	-7.98752
Х	-7.9947
▁мәғлүмәт	-8.00217
▁вы	-8.00363
▁бөтә	-8.00595
ының	-8.0079
ской	-8.009
ч	-8.01328
ге	-8.01414
▁О	-8.01691
са	-8.01959
ҙең	-8.02097
ную	-8.02644
ҙар	-8.02686
▁РФ	-8.02963
▁Башҡорт	-8.02976
ок	-8.0311
▁була	-8.03554
▁кәрәк	-8.03738
▁социаль	-8.03932
▁или	-8.04018
лыҡ	-8.04226
ых	-8.04945
▁будут	-8.05397
▁было	-8.05706
▁эшләй	-8.05835
З	-8.05859
▁мы	-8.05936
ие	-8.06342
Л	-8.06643
▁тора	-8.06646
ова	-8.08072
▁яҡшы	-8.08121
▁араһында	-8.08143
Ф	-8.08148
▁төп	-8.08642
▁район	-8.08981
дың	-8.09048
тары	-8.09371
▁ҡабул	-8.09455
ть	-8.09472
ң	-8.09497
▁8	-8.096
▁время	-8.09855
ые	-8.10417
▁г	-8.10764
дан	-8.10851
▁Фото	-8.10868
ского	-8.11245
▁Башкортостане	-8.11348
за	-8.11547
▁хужалығы	-8.11946
ич	-8.12531
▁Дәүләт	-8.12842
▁культуры	-8.12982
▁ни	-8.13104
▁19	-8.13244
ик	-8.13396
нә	-8.13397
▁шул	-8.13445
▁лет	-8.13929
▁6	-8.1397
▁юл	-8.14096
▁ярҙам	-8.14274
▁пресс	-8.14366
▁матбуғат	-8.14967
▁во	-8.15172
▁12	-8.15371
▁сказал	-8.15389
▁миллион	-8.1544
▁Уфы	-8.15596
▁юғары	-8.15694
▁исемендәге	-8.15879
ке	-8.15901
▁но	-8.16041
▁районе	-8.16137
▁ала	-8.16866
▁30	-8.16977
ләр	-8.17389
▁республике	-8.17441
▁тыш	-8.17518
▁уже	-8.17519
ить	-8.17592
▁участие	-8.17624
ло	-8.1797
▁За	-8.18402
▁ине	-8.1933
▁16	-8.19514
▁7	-8.20152
▁том	-8.20172
▁Л	-8.20352
▁спорт	-8.2087
ию	-8.21038
▁З	-8.21145
ат	-8.21265
▁йәки	-8.21417
ҙан	-8.2168
▁ошо	-8.21873
▁2010	-8.21904
▁биреү	-8.22192
▁Радий	-8.22284
▁млн	-8.22571
▁түгел	-8.22717
▁Республикаһы	-8.22809
▁төбәк	-8.22829
▁9	-8.22922
ф	-8.23207
де	-8.24148
▁имени	-8.24625
ер	-8.25108
▁башҡа	-8.2517
ма	-8.25226
▁хеҙмәт	-8.25243
▁Президенты	-8.25403
лек	-8.26372
▁ваҡытта	-8.26641
▁14	-8.27141
ном	-8.27212
им	-8.27513
▁алды	-8.27872
ү	-8.28037
ят	-8.28263
▁11	-8.28366
▁Президент	-8.28587
▁инде	-8.28759
ҙән	-8.2899
ил	-8.29223
▁были	-8.29266
▁Х	-8.29454
▁федераль	-8.29526
▁итеп	-8.30118
▁төрлө	-8.30124
▁ә	-8.30511
▁только	-8.30687
▁республиканың	-8.31455
ными	-8.31596
▁25	-8.31883
ин	-8.3263
▁БАССР	-8.3277
▁һаҡлау	-8.3284
▁тәшкил	-8.32852
▁около	-8.32956
ев	-8.33074
▁которые	-8.33489
▁бик	-8.33713
▁проект	-8.33787
▁детей	-8.33911
▁районында	-8.34089
от	-8.34766
▁тәҡдим	-8.34776
▁развития	-8.35465
▁ғына	-8.35487
▁то	-8.35548
▁билдәләне	-8.35914
ҙә	-8.36246
▁етәксеһе	-8.36496
▁тейеш	-8.3661
▁конкурс	-8.37197
▁пере	-8.3755
▁улар	-8.37742
▁дә	-8.37938
▁сообщили	-8.38203
▁башлығы	-8.38387
▁беренсе	-8.38929
▁мөмкин	-8.39098
▁алыу	-8.39812
▁работы	-8.39855
▁них	-8.40089
Башҡортостан	-8.40541
▁Бөтә	-8.4074
▁т	-8.41014
нән	-8.41317
▁уны	-8.41344
Е	-8.42091
▁Это	-8.42108
/	-8.42204
ар	-8.42226
ор	-8.42599
▁"	-8.43149
▁тапҡыр	-8.43226
▁донъя	-8.43509
▁килә	-8.43546
У	-8.43796
лары	-8.43808
▁өс	-8.44034
▁тәүге	-8.4424
лә	-8.44278
▁Салауат	-8.44485
▁так	-8.44697
▁министрлығы	-8.44982
▁ҡ	-8.45008
▁дөйөм	-8.45021
Ш	-8.45329
▁Не	-8.45428
▁белем	-8.45478
▁Владимир	-8.45519
▁день	-8.4608
▁Ю	-8.46625
▁иткән	-8.4664
▁урынбаҫары	-8.46814
▁һыу	-8.47006
▁гг	-8.47186
▁бы	-8.47864
▁хаҡында	-8.4845
▁генә	-8.48631
лау	-8.48982
▁һәр	-8.48996
▁хәл	-8.49156
▁рамках	-8.49313
ме	-8.49806
енә	-8.49983
▁Уфа	-8.50084
▁При	-8.50266
▁образования	-8.50494
▁үҫтереү	-8.50643
▁отметил	-8.50673
▁13	-8.50893
▁Он	-8.5112
▁улы	-8.51159
һын	-8.51527
▁д	-8.51653
тә	-8.51949
▁Рәсәйҙең	-8.52016
▁год	-8.52085
▁йәш	-8.52175
▁рәйесе	-8.52223
▁нас	-8.52229
▁бәйле	-8.52446
ра	-8.5254
му	-8.52737
▁ҡаршы	-8.52809
ская	-8.52865
ал	-8.53107
▁числе	-8.53156
▁уларҙың	-8.53382
мы	-8.53467
ни	-8.53609
▁Шулай	-8.53688
▁үҙәге	-8.53689
▁республикала	-8.5376
▁области	-8.5422
▁100	-8.54272
1	-8.54281
▁всех	-8.54463
▁еще	-8.54782
▁Ҡ	-8.54918
▁22	-8.55181
▁Мин	-8.5545
▁Баш	-8.5554
ис	-8.55553
▁яҡын	-8.55729
▁Башлығы	-8.55828
▁Ш	-8.56026
он	-8.56131
▁чтобы	-8.57551
ҫ	-8.57571
▁урынлашҡан	-8.57593
▁где	-8.58187
▁без	-8.58251
▁р	-8.58287
▁СССР	-8.58339
▁Республиканың	-8.58385
▁билдәле	-8.58395
ған	-8.58533
▁мин	-8.58711
или	-8.59392
▁Но	-8.59585
▁сығыш	-8.59735
мен	-8.59977
ре	-8.60632
ать	-8.60729
▁та	-8.60774
ҡара	-8.60796
▁Об	-8.60805
▁торлаҡ	-8.60963
▁милли	-8.61263
▁торған	-8.61431
▁Э	-8.6146
га	-8.61477
▁они	-8.6149
▁уҡыу	-8.61556
▁конкурса	-8.6165
Я	-8.61827
▁ҙа	-8.61906
▁мәҙәниәт	-8.62001
ое	-8.62195
▁города	-8.62265
▁21	-8.62334
аль	-8.62378
▁2002	-8.62705
▁23	-8.62732
быҙ	-8.62802
▁того	-8.62915
▁24	-8.63119
Ә	-8.63138
ков	-8.63161
▁территории	-8.63299
▁юҡ	-8.63483
▁тәьмин	-8.63531
▁киң	-8.63762
тер	-8.6388
по	-8.63922
▁Уның	-8.64201
▁Урал	-8.64647
▁икенсе	-8.64859
ҙәр	-8.64896
▁аҡса	-8.6496
▁сегодня	-8.64989
▁ер	-8.65055
▁йылға	-8.65151
▁этого	-8.6591
);	-8.65936
ва	-8.66134
▁26	-8.66146
ан	-8.6639
▁который	-8.66619
▁региона	-8.66743
▁администрации	-8.66776
▁башкир	-8.67886
▁ҡул	-8.67939
һе	-8.67984
▁бала	-8.68005
▁No	-8.68461
▁есть	-8.68661
ко	-8.68905
▁населения	-8.69148
ҙ	-8.69475
ст	-8.69487
▁сиктәрендә	-8.69657
▁2017	-8.69887
▁нефть	-8.70228
ндә	-8.70262
▁ее	-8.70421
▁быть	-8.7045
▁үтә	-8.70487
▁была	-8.70555
▁арналған	-8.70759
▁Федерации	-8.70951
▁бит	-8.71044
▁Халыҡ	-8.71142
▁ителә	-8.71169
ди	-8.712
ют	-8.71247
▁килгән	-8.71389
▁можно	-8.71471
сти	-8.71555
▁Улар	-8.71562
▁тыуған	-8.71581
▁закон	-8.71638
из	-8.71664
▁Мы	-8.71792
▁Е	-8.72137
▁ярашлы	-8.72389
▁посвящен	-8.7268
▁очень	-8.72687
▁ҡатнаша	-8.72752
▁хеҙмәте	-8.73494
▁1989	-8.73531
▁махсус	-8.73831
▁пройдет	-8.73862
▁(19	-8.74099
▁50	-8.74395
▁ти	-8.75146
▁бара	-8.75311
▁Глава	-8.75572
тәр	-8.75574
▁Хөкүмәте	-8.75586
▁асыҡ	-8.75715
вер	-8.75718
▁28	-8.75826
▁Александр	-8.75934
▁комитеты	-8.76027
▁один	-8.76713
Ғ	-8.76731
▁хәрби	-8.77034
саҡ	-8.77043
▁әле	-8.77067
▁тысячи	-8.77325
ып	-8.77518
▁Бер	-8.77608
▁ҡатын	-8.77756
ских	-8.77802
▁ты	-8.77833
мә	-8.77891
▁Олег	-8.78036
▁место	-8.78069
их	-8.78182
▁иҫәптән	-8.78271
ро	-8.78489
▁йәмәғәт	-8.78758
▁уртаса	-8.78882
▁2-	-8.78902
▁тормошҡа	-8.79293
▁1-	-8.79414
▁унда	-8.79605
овой	-8.79651
▁концерт	-8.7973
Өфө	-8.79829
▁Республикаһының	-8.80166
ҙары	-8.80208
▁береһе	-8.80227
▁Правительства	-8.80311
▁ил	-8.80349
▁нисә	-8.80422
▁2015	-8.80544
▁п	-8.80558
▁27	-8.80921
▁2012	-8.80923
2	-8.81047
▁ял	-8.81306
али	-8.81385
▁теле	-8.81638
▁аша	-8.81839
ман	-8.82037
▁барлыҡҡа	-8.82078
▁перед	-8.82623
▁центр	-8.82716
▁ҙә	-8.82731
см	-8.82783
▁вәкилдәре	-8.83398
▁миллиард	-8.83554
▁среди	-8.83672
▁иттеләр	-8.83682
▁эшләү	-8.83871
▁2011	-8.83904
▁1959	-8.83954
▁кеүек	-8.84165
әр	-8.84464
ские	-8.84511
ба	-8.84514
▁сит	-8.84554
▁словам	-8.8464
▁жизни	-8.84697
▁меня	-8.84708
▁мөһим	-8.84792
▁газ	-8.84937
▁ҡатнашты	-8.8502
▁после	-8.85129
▁алған	-8.85184
▁башлап	-8.85215
▁Российской	-8.8547
▁Хәбиров	-8.85856
▁она	-8.85887
▁1939	-8.85904
▁итергә	-8.86022
▁хозяйства	-8.86029
▁биш	-8.86114
беҙ	-8.86286
▁тағы	-8.86294
▁Яңы	-8.86575
▁ғилми	-8.8698
▁килеп	-8.86983
▁бюджет	-8.87267
▁урман	-8.8729
һыҙ	-8.8729
во	-8.87388
ович	-8.87526
▁дауам	-8.87563
▁көнө	-8.87644
▁2016	-8.877
▁аҙ	-8.87703
ел	-8.87717
4	-8.88105
еп	-8.88114
▁им	-8.88165
▁Стәрлетамаҡ	-8.88172
▁1920	-8.88275
ө	-8.88282
▁тимер	-8.88301
▁урта	-8.88332
ина	-8.88706
▁много	-8.88744
▁мая	-8.88845
▁ойошторола	-8.88851
▁етештереү	-8.88999
▁Республикала	-8.89074
▁40	-8.89186
ник	-8.89254
▁граждан	-8.8941
▁министрлығының	-8.89446
▁Бөгөн	-8.89623
▁рас	-8.89695
▁Премьер	-8.89993
▁процентҡа	-8.90017
▁29	-8.9004
▁медицина	-8.90181
▁эштәр	-8.90281
▁тура	-8.90348
▁башкирского	-8.90444
19	-8.90513
▁Хабиров	-8.90591
ется	-8.90667
ве	-8.90836
▁көн	-8.90859
▁два	-8.91073
▁три	-8.91083
▁хаҡы	-8.91174
▁организации	-8.91308
▁булмаған	-8.91408
▁йәштәр	-8.9148
лись	-8.91486
▁этот	-8.91841
▁күҙ	-8.9199
▁үтте	-8.92001
оп	-8.9202
a	-8.92219
▁министры	-8.92228
об	-8.92554
ол	-8.92557
▁Өфөнөң	-8.92565
ск	-8.92716
лап	-8.92914
▁Салават	-8.92939
кой	-8.93014
▁ителгән	-8.93247
ек	-8.93261
▁директоры	-8.93354
▁которых	-8.93473
овых	-8.93645
▁31	-8.93796
▁1906	-8.93997
▁процент	-8.94015
овые	-8.94091
ив	-8.94117
▁булараҡ	-8.94213
тарҙы	-8.94265
▁Федераль	-8.94268
▁чем	-8.94307
ц	-8.94442
▁йәшәгән	-8.9445
▁После	-8.94571
▁Бынан	-8.94596
▁үк	-8.94663
ность	-8.94901
ства	-8.9491
ском	-8.94914
▁ш	-8.95287
–	-8.95294
▁килде	-8.95315
▁сәнғәт	-8.95422
▁нигеҙ	-8.95433
▁Һ	-8.95509
▁атҡаҙанған	-8.95688
▁[	-8.95748
▁проекты	-8.95765
▁үҫеш	-8.9585
▁состоится	-8.96086
▁тарафынан	-8.96145
”)	-8.96157
▁барышында	-8.96163
▁млрд	-8.96391
▁2018	-8.96434
▁һауа	-8.96449
▁состав	-8.96465
ения	-8.96683
ги	-8.96749
▁(18	-8.96763
ры	-8.96803
▁буласаҡ	-8.96913
▁мал	-8.96976
▁Ғ	-8.96976
дары	-8.97085
ком	-8.97126
службе	-8.97158
▁является	-8.97313
▁мәктәп	-8.97516
▁Президента	-8.9772
!»	-8.97891
▁өлкәһендә	-8.97896
▁завод	-8.97964
ель	-8.98022
▁агентлығы	-8.98153
▁больше	-8.98326
▁проекта	-8.98333
до	-8.98343
▁уға	-8.98368
▁2013	-8.98533
▁Юлаев	-8.98605
ти	-8.98757
дә	-8.98928
▁һайлау	-8.99087
▁бизнес	-8.99119
ева	-8.9925
ур	-8.99407
▁тигән	-8.99416
иль	-8.99548
▁связи	-8.99646
▁эштәре	-8.99888
▁бында	-8.99949
▁августа	-9.00021
бер	-9.0004
▁Мәскәү	-9.00066
5	-9.00127
Урал	-9.00146
▁ойоштороу	-9.00146
▁сообщил	-9.00425
▁заместитель	-9.00638
▁Сергей	-9.0065
сть	-9.00716
▁беҙ	-9.0072
ай	-9.00765
▁план	-9.00772
▁программа	-9.00844
ское	-9.00981
▁рус	-9.01034
сылар	-9.01076
▁хакимиәте	-9.0118
тең	-9.01183
▁здесь	-9.01191
лю	-9.01205
▁директор	-9.01209
▁беҙҙең	-9.01383
▁производство	-9.01426
▁сентября	-9.01526
сә	-9.01567
ул	-9.0163
ша	-9.01757
9	-9.0188
▁буйы	-9.01892
▁театр	-9.0206
▁з	-9.0212
▁эшкәртеү	-9.02181
ться	-9.02278
һында	-9.0228
▁сообщает	-9.02414
▁муниципаль	-9.02463
▁Башкирско	-9.02526
▁идаралығы	-9.02728
ланған	-9.02854
лығы	-9.02996
▁данным	-9.0311
▁Ырымбур	-9.03319
▁главы	-9.03345
▁человека	-9.03375
▁үҙенең	-9.03389
▁школы	-9.03423
▁гор	-9.03641
▁тә	-9.03645
▁между	-9.03693
▁сауҙа	-9.03699
Уфа	-9.03769
э	-9.04058
▁работу	-9.04082
▁процента	-9.0419
▁белдерҙе	-9.04321
▁Из	-9.04346
при	-9.04452
▁может	-9.04461
һа	-9.0458
▁этой	-9.04749
▁йәмғиәте	-9.04772
▁һатып	-9.04806
лай	-9.04868
ри	-9.04954
дәр	-9.05073
▁ҡара	-9.05166
▁меңдән	-9.05193
▁ж	-9.05279
▁2014	-9.05344
▁апреля	-9.05382
▁ваҡыт	-9.05412
тән	-9.05571
▁тау	-9.05703
май	-9.05792
ня	-9.05863
00	-9.059
▁инә	-9.05979
▁марта	-9.06103
Ы	-9.0618
▁Сегодня	-9.06203
▁күләме	-9.06213
▁регионов	-9.06308
▁ҡалаһы	-9.06324
e	-9.06359
ту	-9.06575
▁районов	-9.066
▁мира	-9.06784
▁ҡарай	-9.06793
▁предприятие	-9.06813
▁период	-9.06815
▁наук	-9.0683
▁страны	-9.06937
▁стал	-9.06988
▁июня	-9.0711
тарҙың	-9.07184
▁там	-9.07329
s	-9.07364
▁кон	-9.07629
ности	-9.07656
▁тем	-9.07699
▁театра	-9.07733
▁сәғәт	-9.07736
▁ата	-9.07858
▁һаны	-9.07865
▁респ	-9.07921
▁ҡайһы	-9.08081
▁вопросы	-9.08191
▁транспорт	-9.0827
▁людей	-9.08277
▁үткәреү	-9.08281
▁саралары	-9.08479
▁тауыш	-9.08498
▁байрам	-9.08519
▁профессор	-9.08561
3	-9.08702
▁урын	-9.08844
▁Йыйылышы	-9.09059
▁асыу	-9.09079
▁бирә	-9.09082
▁Яровиков	-9.09114
Э	-9.09116
▁Унда	-9.09648
ному	-9.09701
▁һайын	-9.09769
енең	-9.09815
▁всего	-9.09885
▁2009	-9.09887
▁һүҙ	-9.09902
▁инженер	-9.1
ыр	-9.10004
ендә	-9.10109
▁үтәсәк	-9.10134
▁эсендә	-9.10861
▁эти	-9.10918
▁бөгөн	-9.1101
дер	-9.11215
▁итеүҙәренсә	-9.1123
▁Также	-9.11426
▁Ошо	-9.11469
▁Быйыл	-9.11601
▁годы	-9.11748
▁могут	-9.11775
▁уларҙы	-9.11818
цы	-9.11903
▁мест	-9.11967
▁үткән	-9.12
▁дня	-9.12032
һеҙ	-9.1221
▁саралар	-9.12527
▁двух	-9.12544
▁программы	-9.12596
▁техник	-9.12607
▁га	-9.12615
ран	-9.12758
▁төҙөү	-9.13037
Ҡ	-9.13112
▁кто	-9.13148
ут	-9.13166
▁сәнәғәт	-9.13315
оз	-9.13348
▁фәнни	-9.13384
ир	-9.13407
▁мне	-9.1359
▁булыуы	-9.13631
▁союзы	-9.13671
▁ОАО	-9.1391
ос	-9.13948
▁ремонт	-9.1406
▁работ	-9.1406
▁теркәлгән	-9.14078
тор	-9.14181
▁глава	-9.14233
▁хаҡта	-9.14234
▁Да	-9.14361
▁пред	-9.14404
▁когда	-9.14421
▁күрә	-9.14443
▁спорта	-9.14549
ение	-9.14646
▁районах	-9.14747
▁үткәрелә	-9.14789
▁Республике	-9.14838
▁Ауыл	-9.1508
▁деятельности	-9.15183
7	-9.15205
ист	-9.15245
▁жителей	-9.15309
ыш	-9.154
▁конкурсы	-9.15492
▁икән	-9.15526
▁предприятий	-9.15604
▁производства	-9.15634
8	-9.1579
▁кешеләр	-9.15796
▁һөйләне	-9.15842
Ю	-9.15979
▁других	-9.15994
▁идара	-9.16074
▁войны	-9.16083
▁управления	-9.16118
▁заводы	-9.16152
▁Рәсәйҙә	-9.16208
▁әүҙем	-9.16302
▁процентов	-9.16384
лось	-9.16393
▁нет	-9.16413
▁Путин	-9.16422
▁ли	-9.16448
▁января	-9.16462
ство	-9.16492
ынан	-9.16538
▁мед	-9.16621
▁эшмәкәрлеге	-9.16633
▁работа	-9.1666
һ	-9.16843
▁развитие	-9.16976
▁рәсми	-9.17023
▁2019	-9.17095
▁60	-9.17141
▁һуңғы	-9.17149
ись	-9.17228
▁начала	-9.17261
ав	-9.17323
▁октября	-9.17422
▁хеҙмәттәшлек	-9.17459
▁тонн	-9.17572
▁Дмитрий	-9.17632
әй	-9.17869
һына	-9.18021
▁ауыр	-9.18041
▁мәғариф	-9.18086
▁йылдарҙа	-9.18091
▁Государственно	-9.18291
ль	-9.18457
▁Про	-9.1856
▁министр	-9.18567
▁Так	-9.18603
▁күрһәтеү	-9.18677
▁табан	-9.18698
ец	-9.18722
вод	-9.18871
▁эйә	-9.1895
ләп	-9.19017
ние	-9.19027
▁пар	-9.19215
▁юлы	-9.19261
▁декабря	-9.1939
▁труда	-9.19447
▁Все	-9.19469
▁предприятиелары	-9.19495
ья	-9.19728
▁бүлеге	-9.19814
▁Санкт	-9.19896
6	-9.19991
▁әҙерләү	-9.19993
▁35	-9.19998
пи	-9.2003
▁татар	-9.20043
▁2020	-9.2023
▁Кроме	-9.20237
би	-9.20309
▁халҡы	-9.20388
▁Министерства	-9.20558
ыми	-9.2062
▁квадрат	-9.20661
лась	-9.20673
мер	-9.20702
▁средств	-9.20723
пол	-9.20769
ру	-9.20806
▁ағас	-9.20851
кин	-9.20896
▁районының	-9.20913
▁ҡуйҙы	-9.20952
▁ему	-9.20954
▁комплекс	-9.20975
▁себя	-9.21361
▁сыҡты	-9.21381
▁тонна	-9.21418
▁Шул	-9.21544
▁суд	-9.21796
▁Андрей	-9.21863
▁июля	-9.21923
▁дүрт	-9.21993
▁Беҙ	-9.22119
▁урындағы	-9.22224
▁башкирской	-9.22236
▁фән	-9.22273
▁айырым	-9.22453
▁башланы	-9.2265
щ	-9.22837
ян	-9.22965
▁бергә	-9.22985
▁дома	-9.23321
▁руководитель	-9.2335
▁булдырыу	-9.23589
▁ғаилә	-9.23886
▁төҙөлөш	-9.24007
▁күберәк	-9.2402
ҡы	-9.24052
▁һумға	-9.24103
▁должны	-9.24113
”;	-9.24153
лся	-9.24187
тарын	-9.24223
▁губерн	-9.24263
▁хәҙер	-9.24593
▁яҡлау	-9.24624
▁мөдире	-9.24766
нов	-9.24794
!..	-9.24796
▁йылы	-9.24798
▁итәсәк	-9.24872
▁исеме	-9.24936
▁алынған	-9.25147
▁бирҙе	-9.25157
бай	-9.2528
▁ҡатнашыусылар	-9.2532
ает	-9.25471
▁Үҙәк	-9.25509
▁ходе	-9.25575
▁Конкурс	-9.25636
▁представители	-9.25803
▁финанс	-9.25822
ча	-9.25846
▁ф	-9.26163
▁мәктәбе	-9.26312
лен	-9.26342
енных	-9.26353
ларға	-9.2637
од	-9.26476
▁өлөшө	-9.26501
▁советы	-9.26704
ырға	-9.26763
▁хәҙерге	-9.26905
▁Ж	-9.26991
▁Константин	-9.26991
▁новых	-9.26999
”),	-9.27239
▁ноября	-9.27279
цев	-9.27388
▁сейчас	-9.27423
▁см	-9.27428
дән	-9.27479
▁тикшереү	-9.27584
▁ижади	-9.27668
▁акционерҙар	-9.27673
▁ҡалаһында	-9.27909
▁власти	-9.28245
▁Михаил	-9.28437
▁реализации	-9.28583
▁ашырыу	-9.28594
ғ	-9.28752
▁Среди	-9.28826
▁башлана	-9.28899
▁предприятия	-9.289
ларҙы	-9.29018
▁200	-9.29068
▁алырға	-9.29164
▁ат	-9.29289
▁составляет	-9.29337
▁сығарыу	-9.29356
Рәсәй	-9.29458
▁ҡар	-9.29465
гән	-9.29486
▁подчеркнул	-9.2956
гр	-9.29619
▁йәлеп	-9.29661
18	-9.29677
со	-9.29679
▁От	-9.29723
▁До	-9.29742
▁эше	-9.29786
чи	-9.29923
▁стали	-9.29937
▁профессиональ	-9.30047
▁Во	-9.30146
әү	-9.30187
▁эшләгән	-9.30209
▁мероприятия	-9.30209
▁фестивале	-9.30298
▁надо	-9.30365
▁шәхси	-9.30394
▁через	-9.30448
▁кино	-9.30467
▁китте	-9.30502
▁Уфимск	-9.30538
▁ҡыҙы	-9.30542
ндағы	-9.30563
ләү	-9.30573
▁интернет	-9.30597
▁участников	-9.3063
еш	-9.30676
▁бәләкәй	-9.30895
▁первый	-9.30944
иться	-9.31084
▁программаһы	-9.31265
▁мөрәжәғәт	-9.31275
▁народного	-9.31544
ус	-9.31566
▁метр	-9.31593
▁вице	-9.31656
▁иҡтисади	-9.3197
ум	-9.32254
▁кем	-9.32293
▁хеҙмәткәрҙәре	-9.32299
че	-9.32364
▁свыше	-9.32683
▁электрон	-9.32693
▁пр	-9.32808
▁театры	-9.32862
ru	-9.32864
▁йәшлек	-9.33039
▁языка	-9.33095
▁приняли	-9.33139
ников	-9.33263
▁ниндәй	-9.33362
▁мәсьәләләре	-9.33375
ются	-9.3366
ров	-9.3387
ыу	-9.3396
▁тулы	-9.3401
▁работе	-9.34051
леге	-9.34184
▁сельского	-9.34234
▁РСФСР	-9.34259
▁сер	-9.34294
▁нисек	-9.34446
За	-9.34568
▁народов	-9.34583
ду	-9.34618
▁него	-9.34693
▁организаций	-9.3475
▁нашей	-9.34795
▁ителде	-9.35012
аһы	-9.35048
▁свою	-9.35061
▁файҙаланыу	-9.35089
ларҙың	-9.35233
-19	-9.35271
▁государственной	-9.35532
▁үҙәк	-9.35534
▁һаулыҡ	-9.35755
▁Ватан	-9.35784
▁электр	-9.35956
▁свои	-9.3596
▁авторы	-9.35986
▁Волга	-9.36047
]	-9.36077
▁университеты	-9.36261
▁тап	-9.36289
▁стран	-9.36385
▁лайыҡ	-9.36435
Башкортостан	-9.365
▁Район	-9.3653
▁буйлап	-9.36632
▁булышлыҡ	-9.36684
ели	-9.36796
▁сам	-9.3681
ес	-9.36873
ак	-9.36893
▁йыллыҡ	-9.3696
▁дороги	-9.37027
▁ҡалған	-9.37028
▁над	-9.37075
▁промышленности	-9.37106
▁совет	-9.37139
▁февраля	-9.37211
▁Со	-9.37272
▁йәшәү	-9.3728
▁искусств	-9.3739
лов	-9.37512
став	-9.37572
▁70	-9.37588
▁Совет	-9.37618
▁үҙе	-9.37736
▁информации	-9.37745
▁форум	-9.37748
баев	-9.37876
▁Хәҙер	-9.37887
▁хеҙмәтенән	-9.37952
▁строительства	-9.37956
▁части	-9.37984
▁йорто	-9.38123
▁фестиваля	-9.38347
▁минең	-9.38362
мет	-9.38386
▁прав	-9.38387
үҙҙәренсә	-9.38406
▁рассказал	-9.38415
▁работать	-9.38437
▁тамамлаған	-9.38461
▁Хеҙмәт	-9.38554
▁фестиваль	-9.38568
▁фонды	-9.38571
▁центра	-9.38607
▁иҫәбенә	-9.38678
ика	-9.38837
▁башында	-9.38849
▁ҡына	-9.38916
дең	-9.3897
i	-9.39019
вал	-9.39049
▁Й	-9.39103
▁председатель	-9.39154
▁аҙағында	-9.39246
▁Ни	-9.39252
▁хужалыҡ	-9.3926
▁урыны	-9.39375
▁май	-9.39491
▁яуап	-9.39504
▁һин	-9.39543
▁Милли	-9.39556
бу	-9.3961
▁бал	-9.3982
сө	-9.40021
▁класс	-9.40117
▁өлкәһе	-9.40201
▁социальной	-9.40261
▁кг	-9.40279
бы	-9.40487
▁заседании	-9.40498
▁дом	-9.40566
ция	-9.40575
▁ҡарар	-9.40641
▁комплексы	-9.408
▁уйлап	-9.40801
▁иғтибар	-9.40837
▁градусов	-9.40908
▁көтөлә	-9.41047
ион	-9.41126
▁ағзаһы	-9.41136
уд	-9.41203
ье	-9.41205
прав	-9.41254
▁семей	-9.41269
▁яҡынса	-9.4134
▁ч	-9.41409
ще	-9.41414
▁асыла	-9.41475
▁истории	-9.41544
▁мәҙәни	-9.41553
▁строительство	-9.41599
▁индереү	-9.41644
▁яһаны	-9.41707
▁сайте	-9.41761
▁часов	-9.42065
▁проведения	-9.42125
▁почти	-9.42156
▁йорт	-9.42177
▁работал	-9.42236
▁продукции	-9.4249
▁рәүештә	-9.4249
▁иғлан	-9.4249
вар	-9.42538
республиканского	-9.4266
▁өҫтәмә	-9.42702
▁фольклор	-9.42921
▁батыр	-9.43042
▁если	-9.43051
11	-9.4315
стан	-9.43151
▁ко	-9.43206
",	-9.43365
▁сфере	-9.43391
▁политики	-9.43422
▁аҙыҡ	-9.43436
▁драма	-9.43491
ится	-9.43506
▁мастер	-9.43518
▁нигеҙендә	-9.43538
▁клуб	-9.43547
▁системы	-9.43639
ви	-9.43692
▁булыу	-9.4374
▁пол	-9.43771
ским	-9.4378
▁школа	-9.43883
▁әҙер	-9.43977
▁необходимо	-9.4409
▁быйыл	-9.44201
▁(«	-9.44219
▁нач	-9.44254
▁город	-9.44276
▁башлай	-9.44316
▁своей	-9.44337
▁сыға	-9.4448
▁которая	-9.44522
род	-9.44545
▁Вы	-9.44588
▁пре	-9.44631
▁станц	-9.44672
тарға	-9.4471
▁йортта	-9.44781
ше	-9.44784
▁премии	-9.44922
▁планируется	-9.4529
▁Совета	-9.4538
▁получили	-9.45393
▁Силәбе	-9.4545
мат	-9.45507
▁ҡаралған	-9.45558
▁һалым	-9.45755
▁коллектив	-9.45837
си	-9.4585
оль	-9.45931
▁янғын	-9.46075
▁Бөйөк	-9.46119
▁ҡарата	-9.46142
],	-9.46157
зи	-9.46265
жи	-9.46312
▁ре	-9.46354
▁2000	-9.46366
▁органдары	-9.46494
▁майҙа	-9.46564
государственного	-9.4659
▁Москве	-9.46657
▁төньяҡ	-9.46687
аҡ	-9.46904
▁кор	-9.47006
▁Йәштәр	-9.47012
▁аҡ	-9.47015
селәр	-9.47145
▁иҫәпкә	-9.47146
▁Союза	-9.47246
▁төрө	-9.47296
лан	-9.47302
▁һөт	-9.47483
▁2008	-9.47532
тәре	-9.47547
овая	-9.47596
Баш	-9.47702
▁шунда	-9.47841
скую	-9.47885
▁новые	-9.479
▁ай	-9.47935
▁бындай	-9.47956
▁Напомним	-9.48063
ход	-9.48409
про	-9.48485
▁средства	-9.48497
▁органов	-9.48591
▁регионе	-9.48591
▁алыҫлыҡта	-9.48597
ают	-9.48665
лин	-9.4874
▁500	-9.48744
ового	-9.48816
▁300	-9.48919
▁ингән	-9.48977
ед	-9.48999
Петербург	-9.49057
▁итеүенсә	-9.49156
▁урында	-9.49188
▁Әлеге	-9.49191
▁вопрос	-9.492
▁тапшырыу	-9.49279
▁төбәктә	-9.49328
▁тел	-9.49341
▁вазифаһын	-9.49369
▁другие	-9.49387
▁Белорет	-9.49387
▁нужно	-9.49431
▁йәшәй	-9.4964
▁род	-9.49712
ился	-9.49878
агентству	-9.49933
▁бюджета	-9.50049
сәк	-9.50077
Ж	-9.50132
▁өйрәнеү	-9.50201
чин	-9.50305
▁гос	-9.50354
▁составе	-9.50424
▁своих	-9.50427
▁ҡалды	-9.50453
ун	-9.50549
▁башҡорттары	-9.50583
▁яһай	-9.50682
▁команда	-9.50695
▁яуланы	-9.50699
ками	-9.50811
▁сентябрҙә	-9.50828
ларын	-9.50883
▁Они	-9.50969
▁ООО	-9.51
▁3-	-9.51002
▁Әммә	-9.51062
▁сыҡҡан	-9.5109
▁Сибай	-9.51211
▁рәхмәт	-9.51225
уз	-9.51286
тарҙа	-9.51376
▁самаһы	-9.51514
баш	-9.5153
/.	-9.51532
▁бүлексәһе	-9.51544
▁Федерацияһы	-9.51551
▁тейешле	-9.51643
мо	-9.51646
алар	-9.51662
▁количество	-9.51669
▁музыка	-9.51678
▁Отечественной	-9.51795
▁градус	-9.51877
▁30-	-9.51914
▁здравоохранения	-9.51917
0	-9.51982
▁деревня	-9.52102
▁Туймазы	-9.52161
▁вопросам	-9.52192
▁решение	-9.52241
ган	-9.52264
▁Уфимского	-9.52276
▁сайтында	-9.52311
▁һала	-9.52364
▁комиссияһы	-9.52409
▁хеҙмәткәре	-9.52426
▁талап	-9.52482
▁Республикаһында	-9.52486
▁Мәҙәниәт	-9.52513
▁сәйәсәте	-9.5259
▁люди	-9.52595
▁итогам	-9.52798
▁предприятиеһы	-9.52837
▁музей	-9.52858
▁культур	-9.52889
o	-9.52923
▁ир	-9.52966
▁C	-9.52981
▁цен	-9.5299
▁80	-9.53049
30	-9.53071
▁ҡалала	-9.53102
▁ауылында	-9.53197
▁мероприятий	-9.53215
▁компанияһы	-9.53216
На	-9.53245
▁Если	-9.53393
▁уч	-9.53428
ась	-9.53571
▁һуғышы	-9.53597
ости	-9.53639
▁деятельность	-9.5378
▁ваҡытында	-9.5388
▁урамы	-9.53883
▁автомобиль	-9.53919
▁тураһындағы	-9.53968
▁де	-9.54068
▁Ка	-9.54136
▁конце	-9.54161
▁ойошмаһы	-9.54166
▁иген	-9.542
раз	-9.54253
▁течение	-9.54341
▁булһа	-9.54343
▁университет	-9.54375
▁ҡуйылған	-9.54532
▁вместе	-9.54661
▁мөмкинлек	-9.54701
рос	-9.54711
▁предприниматель	-9.54742
▁радио	-9.54791
▁Велико	-9.54821
▁мәғлүмәттәре	-9.54845
һә	-9.54931
▁Салавата	-9.55027
раҡ	-9.55343
▁городов	-9.55372
▁Автор	-9.55687
▁Под	-9.55798
▁билдәләнгән	-9.55801
▁тоже	-9.55952
▁статус	-9.55957
▁трех	-9.56043
мәй	-9.56072
▁Толкачев	-9.56118
▁комитета	-9.56149
▁ярҙамында	-9.56161
▁ди	-9.56194
ғыҙ	-9.56279
тағы	-9.563
▁тикшеренеүҙәр	-9.56335
▁табыу	-9.56372
▁Николай	-9.5644
▁молодежи	-9.56504
▁пять	-9.56668
ним	-9.56698
▁даже	-9.56849
һының	-9.56852
▁бөтәһе	-9.56919
▁өҫтөнә	-9.5693
▁хоккей	-9.56945
Башҡорт	-9.56945
▁проектов	-9.57099
кон	-9.57255
▁науки	-9.57263
?!	-9.5728
▁Ер	-9.57441
служба	-9.57479
▁днем	-9.57481
▁еңел	-9.57592
50	-9.57597
▁йәнә	-9.57604
▁настоящее	-9.57613
▁буйында	-9.57636
▁те	-9.5766
▁Проект	-9.57663
▁уҙған	-9.57667
▁төшөрәбеҙ	-9.5767
▁видов	-9.57687
лана	-9.57695
▁булырға	-9.5772
▁Халҡы	-9.57866
▁система	-9.57922
▁фото	-9.58018
▁семьи	-9.5803
▁автор	-9.5803
▁часть	-9.58041
ству	-9.58052
▁искусства	-9.58075
▁тәбиғәт	-9.58096
▁ун	-9.58149
▁поддержки	-9.5832
▁йыр	-9.58357
▁банк	-9.58363
▁системаһы	-9.58367
тик	-9.58408
▁кенә	-9.58483
▁иссл	-9.58508
сан	-9.58603
▁тебя	-9.58779
▁институты	-9.58787
▁1865	-9.58807
▁конкурсе	-9.58901
ала	-9.58997
▁нам	-9.59038
ация	-9.59058
ад	-9.59079
▁әммә	-9.59109
яҡ	-9.59244
▁научно	-9.59272
▁мәғлүмәттәр	-9.59278
▁Ләкин	-9.59307
▁Татарстан	-9.59321
▁соц	-9.59365
бор	-9.59383
▁палатаһы	-9.59417
▁иһә	-9.59463
▁аласаҡ	-9.59479
▁бирелә	-9.59499
По	-9.59532
▁заведующи	-9.59592
ергә	-9.59632
▁бел	-9.59656
шин	-9.59667
ца	-9.5969
▁яр	-9.59792
изм	-9.59833
▁ряд	-9.59857
▁службы	-9.59859
▁услуг	-9.59904
▁(1	-9.59954
▁депутат	-9.59972
▁түләү	-9.60079
▁институтында	-9.60106
▁воздуха	-9.60106
▁Всего	-9.60125
▁дауалау	-9.60189
▁үҙәгенән	-9.60243
▁һумдан	-9.6028
еж	-9.60315
▁апрелдә	-9.60414
▁реке	-9.60498
▁месте	-9.60512
▁ӨФӨ	-9.60638
▁индерелгән	-9.60705
▁ағзалары	-9.60737
▁райондарында	-9.60741
дарҙы	-9.60783
әт	-9.6093
▁лауреаты	-9.61051
▁алда	-9.6106
▁таш	-9.61093
▁университета	-9.61153
▁площади	-9.61175
▁эшкә	-9.6121
овым	-9.61258
▁һыҙыҡ	-9.61261
▁социально	-9.6135
▁помощи	-9.61378
▁Рус	-9.61465
ән	-9.61555
Салауат	-9.61708
һен	-9.61712
▁несколько	-9.61796
▁дней	-9.61802
▁ҡарағанда	-9.61823
вин	-9.61838
▁Ҡала	-9.61899
▁Учалы	-9.61971
▁окончания	-9.62002
▁Она	-9.62023
▁ел	-9.62051
геҙ	-9.622
▁алтын	-9.6228
тив	-9.62292
▁июндә	-9.62296
10	-9.62336
▁төндә	-9.62348
▁хәлдәр	-9.6245
▁башҡарыусы	-9.62507
▁уҙғарыла	-9.62532
▁фильм	-9.62538
▁стала	-9.62596
▁декабрҙә	-9.62737
▁45	-9.62804
па	-9.62811
▁барып	-9.62817
ларҙа	-9.62944
▁игр	-9.62963
▁ошондай	-9.63007
▁развитию	-9.63017
▁I	-9.63029
▁предприятиелар	-9.63134
ши	-9.63146
ёр	-9.6329
▁балет	-9.63311
20	-9.63324
вы	-9.63328
▁артист	-9.63371
▁федерального	-9.63376
▁кире	-9.63384
лер	-9.63397
▁өсөнсө	-9.63461
▁булыр	-9.6352
▁Бында	-9.63532
▁Что	-9.63626
▁ҡыҫҡа	-9.63674
гу	-9.63768
еү	-9.63784
дин	-9.6382
▁жилья	-9.63844
▁ҡаты	-9.63872
▁всем	-9.63953
▁ст	-9.64098
мин	-9.64153
▁начале	-9.64198
12	-9.64213
▁артабан	-9.64275
▁документ	-9.64289
ош	-9.64323
▁генераль	-9.64327
▁көс	-9.6435
▁тот	-9.64357
▁нового	-9.6436
▁власть	-9.64374
▁сикләнгән	-9.64395
ҡыҙҙар	-9.64546
▁Вот	-9.64697
▁оператив	-9.64742
▁места	-9.64743
▁Мәскәүҙә	-9.64763
▁Ба	-9.64835
▁себе	-9.6486
работ	-9.64999
▁реки	-9.65034
▁которой	-9.65091
▁Ар	-9.65092
▁әйтеүенсә	-9.65161
▁ойошторолған	-9.65163
▁32	-9.65216
▁2005	-9.65286
▁фәндәр	-9.653
▁агентлығына	-9.65365
▁өлкән	-9.65381
су	-9.65408
▁хоҡуҡ	-9.65456
40	-9.65644
▁школ	-9.65652
стро	-9.65733
һең	-9.65772
▁Европа	-9.65845
▁температураһы	-9.65923
ились	-9.6593
▁Респ	-9.65935
▁право	-9.65942
▁вас	-9.65948
▁көньяҡ	-9.65986
кор	-9.66004
ее	-9.66021
▁форума	-9.66064
▁эре	-9.66104
▁алдында	-9.66127
▁заманса	-9.66165
▁объектов	-9.66264
▁ултырышында	-9.66277
ний	-9.66291
▁УФА	-9.66309
стр	-9.66367
▁йомғаҡтары	-9.66379
▁пока	-9.66435
▁язык	-9.66462
аз	-9.66494
▁Сара	-9.6652
лет	-9.66545
яз	-9.66639
▁село	-9.667
▁Максим	-9.66716
▁проводится	-9.66752
ния	-9.66777
▁көндә	-9.6678
рт	-9.66792
▁интерес	-9.66852
уль	-9.66862
▁быуат	-9.66956
▁свой	-9.66976
▁йүнәлтелгән	-9.67001
▁городе	-9.67022
▁Мәғариф	-9.67064
▁жизнь	-9.67146
▁одно	-9.67167
▁коронавирус	-9.67178
▁прошлом	-9.67199
▁учреждениелары	-9.67251
▁уларға	-9.67341
фи	-9.67415
▁основе	-9.67421
▁компания	-9.67482
▁времени	-9.67497
▁арт	-9.67541
▁пункт	-9.67547
▁артисы	-9.67573
▁дни	-9.67642
▁Главы	-9.67667
▁барған	-9.67736
▁депутаты	-9.67772
ово	-9.67774
▁асылды	-9.6779
▁яҡтан	-9.67848
▁сельскохозяйств	-9.67933
▁төҙөлгән	-9.68005
▁күҙаллана	-9.68086
▁праздник	-9.6814
▁Артур	-9.6829
▁учреждений	-9.68522
▁ҡыҙ	-9.68579
▁группы	-9.6864
▁бирелгән	-9.68658
▁возможность	-9.68681
▁төркөмө	-9.68748
▁инвестиция	-9.68842
▁продукция	-9.68915
▁ойоштороусылар	-9.68944
▁Окончил	-9.68947
▁ойошмалары	-9.68991
ики	-9.6902
▁регионального	-9.69097
тарында	-9.69123
▁ведомство	-9.69163
▁мәҙәниәте	-9.69166
▁СМИ	-9.69167
аться	-9.69303
дарҙың	-9.69304
▁төҙөлә	-9.69307
▁стране	-9.69324
%	-9.69329
▁селе	-9.69397
▁женщин	-9.69429
▁защиты	-9.69458
ница	-9.69462
▁командаһы	-9.69518
S	-9.69562
▁уезда	-9.69573
▁+	-9.69587
▁физик	-9.69656
▁Ҡыҙыл	-9.69753
▁помощь	-9.69804
▁Расположен	-9.69825
▁новый	-9.69831
▁халыҡтың	-9.69831
министры	-9.69837
▁совместно	-9.69891
▁находится	-9.70167
▁нем	-9.70214
▁ноябрҙә	-9.70267
▁күҙәтеү	-9.70273
▁арттырыу	-9.70508
▁элек	-9.7052
▁Бына	-9.70524
▁алғанда	-9.70576
ось	-9.70595
▁Ты	-9.70618
▁йыйыу	-9.70649
▁институт	-9.70691
▁мартта	-9.70726
коммуналь	-9.70745
ығыҙ	-9.70802
▁ныҡ	-9.70825
▁Фәнни	-9.70939
ств	-9.70957
▁пройдут	-9.71007
▁ҡулланыла	-9.71081
▁Уны	-9.71107
▁ҡулланыу	-9.71236
▁ете	-9.71343
▁90-	-9.71374
каз	-9.71377
▁урыҫ	-9.71397
▁заявил	-9.71439
▁Бәләбәй	-9.71444
▁хеҙмәтендә	-9.71527
▁техника	-9.71631
ации	-9.71721
▁Дөйөм	-9.71735
▁2006	-9.71786
▁үҫеше	-9.71789
▁биргән	-9.71798
▁Россия	-9.71967
▁внимание	-9.71978
▁Уларҙың	-9.72147
▁ижады	-9.72151
▁торошо	-9.72208
Салават	-9.7221
▁отдела	-9.72211
ындағы	-9.72273
▁һуғыш	-9.72291
▁работников	-9.72295
▁Ҡазан	-9.72338
▁планлаштырыла	-9.72354
▁фонд	-9.72362
▁домов	-9.72366
▁акции	-9.72507
▁ут	-9.72551
▁октябрҙә	-9.72606
ировать	-9.72658
▁губернии	-9.72717
енные	-9.72751
▁премия	-9.7284
▁үҙгәрештәр	-9.72853
▁впервые	-9.73038
ща	-9.73042
▁составында	-9.73113
▁одной	-9.73117
ания	-9.73151
аш	-9.73153
▁Шуға	-9.73157
▁Его	-9.73178
бо	-9.73182
▁совета	-9.73236
▁теперь	-9.73261
▁комплекса	-9.73378
▁станции	-9.73391
▁Министерство	-9.73409
▁36	-9.73469
▁көндөҙ	-9.73503
▁2007	-9.73529
▁тота	-9.73552
һың	-9.73554
▁этап	-9.73564
▁одного	-9.73595
тель	-9.73596
▁ит	-9.73676
▁булыуын	-9.73704
▁этих	-9.73719
жа	-9.73747
реп	-9.73751
ость	-9.73819
▁генерал	-9.73916
▁башкирских	-9.73916
▁барыла	-9.73924
▁уйын	-9.74014
ней	-9.74033
▁әҙерлек	-9.74126
рем	-9.74136
▁тарихи	-9.74138
▁билдәләү	-9.74177
▁пл	-9.74182
▁являются	-9.74184
▁начальник	-9.74229
▁химия	-9.74238
▁берлектә	-9.74269
▁Эш	-9.74284
▁пер	-9.74294
▁народ	-9.7432
▁кредит	-9.74355
▁большой	-9.74408
▁указ	-9.74412
▁Советы	-9.74416
▁саҡта	-9.74455
▁чемпион	-9.74486
▁34	-9.74495
▁капиталь	-9.74521
▁ос	-9.74578
өр	-9.74586
▁хеҙмәттәре	-9.74635
рат	-9.74653
▁пункты	-9.74673
▁барлыҡ	-9.74713
ләй	-9.74856
тыр	-9.74903
аж	-9.74935
▁авто	-9.75009
60	-9.75027
▁литературы	-9.75036
▁партия	-9.75069
под	-9.75151
u	-9.75264
▁исемен	-9.75294
ила	-9.75312
▁миңә	-9.75336
▁37	-9.7535
▁дети	-9.7536
Й	-9.75418
▁молодых	-9.75427
▁вот	-9.75453
▁общества	-9.75509
▁округа	-9.75513
▁слова	-9.75559
▁вәкиле	-9.75573
▁1994	-9.75664
▁тамамлағандан	-9.7569
▁столице	-9.75736
▁ҡараған	-9.75747
ҡан	-9.75748
▁ҡарап	-9.75758
▁һәләк	-9.75764
▁Бөрө	-9.75764
▁института	-9.75767
▁дворах	-9.75826
ста	-9.75842
кр	-9.75987
▁проходит	-9.7599
▁Закон	-9.76035
ук	-9.76063
▁өлкәһендәге	-9.76116
▁50-	-9.76133
▁руководством	-9.76208
▁итеүгә	-9.76242
летию	-9.7632
▁ярҙамы	-9.76332
▁ләкин	-9.76352
ид	-9.76439
▁народа	-9.76455
▁ним	-9.76582
80	-9.7659
▁парк	-9.76637
▁ҡараны	-9.7665
▁ҡарамағындағы	-9.76682
▁арҡаһында	-9.76746
▁популяр	-9.76763
▁главный	-9.76793
▁температура	-9.76876
▁момент	-9.76884
▁совещании	-9.76941
техник	-9.76955
ыҡ	-9.76965
▁сәнәғәте	-9.7706
▁прием	-9.77073
▁счет	-9.77094
▁33	-9.77133
▁ночью	-9.77172
▁акция	-9.77262
▁Ү	-9.77302
▁актив	-9.7732
▁Ҡара	-9.77354
▁тех	-9.77451
▁составына	-9.77527
уш	-9.77551
▁әлеге	-9.77585
▁даими	-9.77792
ЕН	-9.77833
▁халҡының	-9.77874
▁1,5	-9.77878
▁метров	-9.7801
▁округы	-9.78042
▁четыре	-9.78192
ряд	-9.78259
▁1991	-9.78346
Ц	-9.7839
▁майҙаны	-9.78424
аны	-9.78431
▁60-	-9.78489
▁компании	-9.78489
▁встречи	-9.78503
▁творчества	-9.78569
▁1990	-9.78593
▁стало	-9.78604
▁китап	-9.78643
▁Ғәҙәттә	-9.78649
▁(2	-9.78712
▁начальнигы	-9.78729
▁ғәмәлгә	-9.78739
▁алдынан	-9.78767
ических	-9.78793
▁ихтимал	-9.78805
▁Марат	-9.78838
▁ком	-9.78841
▁воз	-9.78889
▁жюри	-9.78971
▁райцентра	-9.79
▁эшләргә	-9.79004
тау	-9.79046
▁приз	-9.79048
▁алты	-9.79094
▁1992	-9.79223
▁нимә	-9.7931
▁унан	-9.79357
▁ҡаланың	-9.79363
▁муниципальных	-9.79445
▁тебе	-9.79465
▁труд	-9.79468
▁Хәтерегеҙ	-9.79537
▁таралған	-9.79618
▁зыян	-9.79698
▁бай	-9.79894
▁Ирек	-9.79914
▁клубы	-9.79994
▁проценты	-9.79999
28	-9.80037
▁эшмәкәре	-9.80041
▁Беренсе	-9.80057
▁научн	-9.80058
▁проблемы	-9.80067
рен	-9.80074
▁бүләк	-9.80155
▁Ко	-9.8017
▁Көньяҡ	-9.8036
▁председателя	-9.80404
▁70-	-9.80435
▁Юл	-9.80443
ции	-9.8052
3;	-9.80586
▁38	-9.80611
теп	-9.80667
зов	-9.80762
▁Төбәк	-9.80788
▁2021	-9.80799
ИН	-9.80819
▁целом	-9.80859
▁гидро	-9.80878
ступ	-9.80879
▁матур	-9.80892
лағы	-9.80892
▁объем	-9.80893
▁специалистов	-9.80939
▁Бындай	-9.80973
▁фонда	-9.80986
▁мир	-9.81002
▁села	-9.81025
▁министра	-9.81031
▁тур	-9.81072
▁дело	-9.81075
▁День	-9.81098
▁саҡ	-9.81112
хи	-9.81119
▁гектар	-9.81163
▁смогут	-9.81171
стра	-9.81195
▁тренер	-9.81207
▁янында	-9.81233
▁наших	-9.81247
▁программе	-9.81319
▁Беҙҙең	-9.81331
▁етәкселәре	-9.81341
▁пяти	-9.81378
▁тантанаһы	-9.81417
▁второй	-9.81417
▁песни	-9.81667
▁принял	-9.8168
тов	-9.81776
▁базе	-9.8178
▁инновацион	-9.81782
▁рук	-9.8179
▁уҙҙы	-9.81829
(	-9.81905
▁90	-9.81911
рав	-9.81939
▁уңышлы	-9.82022
▁әйткәндә	-9.82031
ска	-9.821
▁Ли	-9.82137
▁туризм	-9.82186
▁телефон	-9.82193
премьер	-9.82218
▁Октябрьский	-9.82275
түлек	-9.82295
▁Азат	-9.82332
▁мусульман	-9.82341
▁число	-9.82348
▁характер	-9.82363
▁две	-9.82402
ҙағы	-9.8241
▁һалыу	-9.82437
1;	-9.82483
нос	-9.82608
▁сөнки	-9.8266
▁тормош	-9.827
уч	-9.82757
▁ябай	-9.82825
тра	-9.82844
▁үҙәгендә	-9.8285
▁экономики	-9.82862
▁Население	-9.8291
▁порядка	-9.82911
ҡыҙ	-9.82929
▁ҡан	-9.83043
▁райондары	-9.83072
▁иҫәп	-9.83089
гор	-9.8316
▁должен	-9.83162
▁работает	-9.83221
▁артҡан	-9.8326
▁тарихы	-9.83291
▁батша	-9.83414
▁дел	-9.83468
ИА	-9.83506
▁аш	-9.83517
Ч	-9.83631
▁һорау	-9.83639
яв	-9.83651
ники	-9.8368
▁отделения	-9.83692
ями	-9.83702
рә	-9.83703
▁илдең	-9.83776
▁халыҡты	-9.83895
▁эту	-9.83912
▁Өфөләге	-9.83995
▁последние	-9.84005
▁видео	-9.84013
▁Сейчас	-9.84095
▁мөмкинлеге	-9.84098
▁проблем	-9.84126
▁Ауылға	-9.84216
▁своего	-9.843
▁опыт	-9.84335
▁авиация	-9.84362
▁20-	-9.84475
вид	-9.84481
▁против	-9.84549
ё	-9.84552
▁урынды	-9.84584
▁Һин	-9.84602
ОР	-9.84627
▁Иң	-9.84628
▁телендә	-9.84723
енән	-9.84729
▁Медведев	-9.84786
▁Победы	-9.84855
Ө	-9.84861
▁Бай	-9.84873
▁терр	-9.84937
▁150	-9.8495
▁языке	-9.84957
▁программ	-9.85061
▁Икенсе	-9.85093
др	-9.85117
▁өйәҙе	-9.85125
▁иҡтисад	-9.85161
▁1993	-9.8519
строй	-9.85197
чит	-9.85319
ген	-9.85405
▁башланды	-9.85416
▁Иван	-9.85417
әл	-9.85432
▁Йыл	-9.85538
▁одновременно	-9.8554
▁составил	-9.85565
▁условиях	-9.85575
▁биләмәһендә	-9.85601
▁барыһы	-9.85628
▁детских	-9.85638
▁Ч	-9.85649
овый	-9.85667
▁просто	-9.85671
▁которого	-9.85798
▁представитель	-9.85909
▁Ак	-9.85921
4;	-9.85994
▁клиник	-9.86085
ант	-9.86129
▁филиалы	-9.86209
әм	-9.86226
▁II	-9.86238
ается	-9.86247
КА	-9.86264
VI	-9.86338
▁Ленин	-9.86351
▁Ку	-9.86417
▁кешегә	-9.86423
▁түбән	-9.8647
▁лучших	-9.86577
▁докторы	-9.86585
ланы	-9.86594
▁Алексей	-9.86664
▁Уфу	-9.86675
▁БРИКС	-9.8675
▁бушлай	-9.8676
▁Ал	-9.86761
зы	-9.8696
▁её	-9.87021
▁яуаплылығы	-9.87056
ост	-9.87101
13	-9.87105
рҙы	-9.87238
▁говорит	-9.87303
▁участка	-9.87396
▁75	-9.87435
▁барыу	-9.87462
▁ансамбле	-9.87466
маны	-9.87538
бар	-9.87576
▁посетил	-9.87588
▁егет	-9.87593
▁юбилей	-9.87687
▁поли	-9.87791
овский	-9.87812
ием	-9.87814
▁ҡатнашыу	-9.87895
Берҙәм	-9.87974
илась	-9.88001
▁научных	-9.88012
▁ведомства	-9.88042
▁боҙ	-9.88062
▁ожидается	-9.88074
▁аҫтында	-9.88121
▁Баймаҡ	-9.8813
Һ	-9.88231
▁55	-9.88253
▁Еңеү	-9.88329
ларында	-9.88378
▁һатыу	-9.88384
▁бизнеса	-9.88604
▁Башҡортостандан	-9.88636
▁прошлого	-9.88652
▁көслө	-9.88735
▁уҡыусылары	-9.88762
▁получить	-9.88775
▁тиҙ	-9.88783
▁миллионов	-9.88834
▁земли	-9.88896
▁көмөш	-9.8894
7;	-9.88944
▁көндө	-9.88963
▁виде	-9.89008
▁этно	-9.89035
▁йәмғиәтенең	-9.89046
▁хорошо	-9.89061
▁Кар	-9.89102
▁айырыуса	-9.89132
▁жители	-9.89134
▁Ил	-9.89176
")	-9.89182
▁эргәһендә	-9.89183
министр	-9.89211
▁коллективы	-9.89244
▁/	-9.89277
9;	-9.89366
▁уровне	-9.89368
▁делегацияһы	-9.89385
▁Башкирский	-9.89401
▁лиц	-9.89443
▁ар	-9.89454
▁уҡытыу	-9.89473
Башнефть	-9.89489
▁исем	-9.89491
ну	-9.89503
8;	-9.8951
▁исемле	-9.89594
▁станет	-9.89622
▁100-	-9.89664
▁движения	-9.89665
▁ваҡытлыса	-9.89677
▁Ша	-9.89682
▁хим	-9.89743
▁улусы	-9.89791
▁арала	-9.89842
▁бур	-9.89855
▁муниципалитет	-9.89879
▁сотрудничества	-9.89932
▁ведь	-9.89952
▁Мо	-9.89964
енко	-9.90006
▁встреча	-9.90045
▁правительства	-9.90073
▁стороны	-9.90084
ыл	-9.90109
▁деятель	-9.9011
▁поддержке	-9.90112
▁комитет	-9.90199
лаған	-9.90273
▁һөҙөмтәләре	-9.90332
ОВ	-9.90408
▁ҡатнашлығында	-9.90422
▁осрашты	-9.90433
▁Ай	-9.90455
6;	-9.90464
▁февралдә	-9.90476
▁техники	-9.9049
пу	-9.905
▁социальных	-9.90536
три	-9.9056
▁разных	-9.90566
ём	-9.90636
▁Конгресс	-9.90653
▁поддержку	-9.90653
▁дела	-9.90664
▁час	-9.90671
▁баҫыу	-9.90697
ланды	-9.90711
▁член	-9.90712
кова	-9.9082
▁киткән	-9.90829
▁көрәш	-9.9083
▁бүләкләнгән	-9.90838
▁партии	-9.90844
ЕР	-9.90867
▁башҡарма	-9.9089
ому	-9.90938
▁секретары	-9.90948
▁идет	-9.90972
▁объект	-9.90991
▁сегодняшни	-9.90998
▁назад	-9.91018
▁Һаулыҡ	-9.91023
▁сара	-9.9103
▁создан	-9.91043
ыраҡ	-9.91141
▁бо	-9.91152
ха	-9.91194
оло	-9.91271
▁педагог	-9.91288
▁йылына	-9.91297
▁мине	-9.91325
▁вклад	-9.91338
▁фекер	-9.91353
тен	-9.91373
▁всегда	-9.9138
▁сутки	-9.91381
▁Павел	-9.91382
▁эске	-9.91413
▁хәрәкәте	-9.91438
ско	-9.91444
ён	-9.91464
▁Төбәктә	-9.91466
▁сәсеү	-9.91515
▁Юрий	-9.91539
r	-9.91633
овка	-9.91644
▁1919	-9.91644
▁ней	-9.917
▁билдәләнә	-9.91738
▁Госсобрания	-9.91745
дел	-9.91751
▁Раил	-9.91762
▁разл	-9.91797
пер	-9.91817
▁комиссии	-9.91836
▁выс	-9.91884
▁Башкирской	-9.91893
▁безопасности	-9.91929
▁ауылы	-9.91975
▁үҫтереүгә	-9.92041
маған	-9.9206
▁комиссия	-9.9208
ология	-9.92234
▁директора	-9.92373
▁маҡсаты	-9.92395
▁рубля	-9.92425
▁Иш	-9.92467
▁йөҙ	-9.92474
▁уҡытыусыһы	-9.92479
▁тәжрибә	-9.92486
▁башҡорттар	-9.92564
ден	-9.9258
▁режиссер	-9.92662
уллин	-9.92684
▁такой	-9.92704
▁Здесь	-9.92756
ура	-9.92774
▁ҡайҙа	-9.92775
▁өлөш	-9.92793
70	-9.92816
▁дауамында	-9.92863
мәне	-9.92866
▁ребенка	-9.92941
▁менее	-9.92946
▁команд	-9.92961
▁назначен	-9.93034
ҡай	-9.93048
тур	-9.93056
25	-9.93099
стоя	-9.93152
ню	-9.93165
▁Балалар	-9.9322
▁свет	-9.93292
▁маҡсатында	-9.93324
▁(17	-9.93367
чат	-9.93399
▁которое	-9.93405
▁иҫәпләнә	-9.93407
Един	-9.93409
▁июлдә	-9.93425
▁культура	-9.93432
▁электро	-9.93475
▁Ағиҙел	-9.9354
▁39	-9.93585
▁ямғыр	-9.93585
▁башынан	-9.93637
▁Гос	-9.93708
▁мол	-9.93732
▁Борис	-9.93744
▁берҙәм	-9.93919
▁адрес	-9.93923
▁һымаҡ	-9.9395
▁турала	-9.93963
▁Ике	-9.93964
▁конца	-9.93971
▁еңеү	-9.93977
▁Уфимской	-9.94063
бир	-9.94082
▁4-	-9.94095
▁осраҡта	-9.94122
тыу	-9.94251
▁ғариза	-9.9426
▁старт	-9.94451
▁полк	-9.94609
молодежной	-9.94678
▁килешеү	-9.94682
скому	-9.94698
▁сообщила	-9.94701
2;	-9.94715
▁кимәлдә	-9.94732
▁ЮНЕСКО	-9.94753
рға	-9.94785
щи	-9.94788
▁шуға	-9.94813
▁собой	-9.94831
▁баһа	-9.94896
▁технологии	-9.94999
▁үҙҙәренең	-9.95022
▁һөнәри	-9.95047
ешь	-9.95051
АР	-9.95069
▁текуще	-9.95079
▁общей	-9.95148
▁пор	-9.95175
▁10-	-9.95202
5;	-9.95214
▁Документ	-9.95245
▁инеү	-9.95364
енная	-9.95427
▁Ту	-9.95464
▁столицы	-9.95474
▁Төп	-9.95495
▁байрамы	-9.95512
▁Руслан	-9.95647
▁ШОС	-9.9565
▁тиерлек	-9.95661
▁тулыһынса	-9.95661
▁эшләнә	-9.95699
▁иҫәбендә	-9.95729
m	-9.95765
▁65	-9.95766
▁600	-9.95777
▁0	-9.95789
▁күрһәтә	-9.95846
▁подготовки	-9.95852
▁ваҡыты	-9.95888
▁относится	-9.95947
нова	-9.95974
▁активно	-9.96021
▁мәсет	-9.96043
▁баҡсаһы	-9.96089
▁дорог	-9.9612
▁һайлап	-9.96142
лығын	-9.96149
▁яһау	-9.96154
▁1998	-9.96323
әсәк	-9.96327
ҙарҙы	-9.96368
▁частности	-9.96425
▁будем	-9.96437
▁примут	-9.9645
пан	-9.96522
▁свое	-9.96535
▁Мәләүез	-9.96588
▁80-	-9.96651
ление	-9.96681
▁уровня	-9.96713
ёт	-9.96748
▁тирә	-9.96751
▁билдәләнде	-9.96811
нее	-9.96855
▁журналист	-9.96876
ҙарҙың	-9.96896
▁Союз	-9.969
▁ҡатнашҡан	-9.96911
▁семинар	-9.96918
▁проф	-9.96972
инг	-9.97001
▁1999	-9.97038
раж	-9.97074
кий	-9.97079
▁рабочих	-9.97102
▁орденом	-9.97133
▁административ	-9.97175
▁хоҡуҡлы	-9.97194
▁яҡты	-9.97205
▁дәрәжә	-9.97211
▁сбор	-9.97213
▁1995	-9.97222
▁ал	-9.97347
▁тик	-9.97368
▁волости	-9.97398
▁химик	-9.97456
ический	-9.97498
▁роль	-9.97522
▁городах	-9.97525
▁принять	-9.97544
▁китә	-9.97613
лу	-9.97635
фа	-9.97641
▁сығып	-9.97675
Газпром	-9.97682
▁уй	-9.9772
▁Управления	-9.97776
ям	-9.97787
▁прошел	-9.97793
▁пе	-9.97816
▁белгестәр	-9.97833
▁Стерлитамак	-9.9786
әк	-9.97906
45	-9.97916
▁штраф	-9.97925
▁ебәрҙе	-9.97988
▁качестве	-9.97996
▁сығыу	-9.98029
▁таких	-9.98045
▁ыңғай	-9.98068
▁плат	-9.9807
ении	-9.98091
▁составила	-9.98104
▁43	-9.98125
ево	-9.98153
▁120	-9.98185
▁42	-9.98258
сов	-9.98276
▁Өфөгә	-9.98308
▁одним	-9.98312
▁әйтте	-9.98313
▁самых	-9.98326
▁2004	-9.98365
▁экологик	-9.98372
▁ҡуйыу	-9.98417
▁этим	-9.98438
▁форм	-9.9846
▁Һәр	-9.98499
▁ҡатнашыусы	-9.98503
15	-9.98514
▁Яр	-9.98596
▁ауылда	-9.98613
▁йорттары	-9.98647
▁газеты	-9.98654
▁котором	-9.98654
▁илдә	-9.98664
▁Курултая	-9.98719
24	-9.98723
▁маршрут	-9.9875
▁заседание	-9.98752
▁очередь	-9.9879
▁1996	-9.98815
▁туған	-9.98865
▁пост	-9.98888
▁норматив	-9.98952
▁көтә	-9.9896
t	-9.98962
▁Урман	-9.98962
ци	-9.98966
▁нар	-9.98968
жен	-9.98999
▁шарттар	-9.99083
ались	-9.99106
концерт	-9.9912
егеҙ	-9.99126
лог	-9.99148
▁уңайлы	-9.99205
▁Ну	-9.9921
▁технологий	-9.99244
▁Һуңғы	-9.99244
кая	-9.99276
▁Ха	-9.99284
▁проектын	-9.9929
ҙәре	-9.99299
зин	-9.99314
▁ҡоро	-9.99323
▁одна	-9.99331
▁2001	-9.99334
▁занятости	-9.99345
▁башкирский	-9.9939
▁1917	-9.99435
▁тапшырҙы	-9.99455
ың	-9.99485
2.	-9.99536
▁условия	-9.99562
21	-9.99564
▁эшләнгән	-9.99574
▁форумы	-9.99604
▁каждый	-9.99664
▁элекке	-9.99665
бра	-9.99706
▁тепло	-9.99708
▁ҡарау	-9.9971
▁доктор	-9.99723
тин	-9.99765
▁Раз	-9.99793
дыр	-9.99797
▁беҙгә	-9.99799
▁ҡоролтайы	-9.99805
▁граждандар	-9.99806
▁биләй	-9.99846
▁ту	-9.99878
▁төҙөлөшө	-9.99884
▁400	-9.99891
иш	-9.99893
29	-9.99916
▁хакимиәтенең	-9.99948
▁2003	-9.99998
▁материалов	-10.0007
?..	-10.001
▁онлайн	-10.0014
▁Однако	-10.0014
▁университетында	-10.0015
▁магазин	-10.0016
▁күргәҙмә	-10.0018
летний	-10.0019
▁Бик	-10.0023
▁кәңәшмәлә	-10.0023
▁тәбиғи	-10.0023
▁1795	-10.0027
енной	-10.0038
▁контроль	-10.004
▁сәйәси	-10.0047
▁направлен	-10.005
министра	-10.0051
▁вид	-10.0052
▁хас	-10.0055
▁кафедра	-10.0056
▁әллә	-10.0061
▁оло	-10.0061
▁килтерә	-10.0061
▁педагогия	-10.0062
воз	-10.0066
▁всё	-10.0066
▁1918	-10.007
▁ҡатмарлы	-10.007
лө	-10.0074
цион	-10.0078
▁учреждения	-10.0082
▁индерелә	-10.0083
▁йомғаҡ	-10.0086
енный	-10.0086
▁анализ	-10.0088
ҙарын	-10.0088
▁Есть	-10.0088
соответствии	-10.0093
ләре	-10.0095
▁кимәле	-10.0097
▁номинации	-10.0103
оро	-10.011
ника	-10.0112
▁китапхана	-10.0113
▁тотоу	-10.0124
▁руководителя	-10.0126
▁Әгәр	-10.0127
▁уҙа	-10.0132
▁Кор	-10.0135
ью	-10.0137
90	-10.0138
▁барҙы	-10.0142
▁встретил	-10.0143
▁машина	-10.0143
▁башлаған	-10.0145
▁Өфөнән	-10.0151
▁Йә	-10.0159
рәк	-10.0175
▁проведение	-10.0187
▁йән	-10.0187
▁установлен	-10.0188
▁такие	-10.019
▁күрһәткән	-10.0195
▁Башкирия	-10.0198
▁бына	-10.0207
▁тарих	-10.0208
пад	-10.0208
▁Кон	-10.0213
▁вошли	-10.0217
▁территорияһында	-10.0221
нев	-10.0226
17	-10.0226
▁воды	-10.0226
иров	-10.0231
АЙ	-10.0234
▁тут	-10.0238
лей	-10.0239
▁городского	-10.024
▁минут	-10.024
▁осрашыу	-10.0245
▁Эске	-10.0246
▁Юғары	-10.0257
▁премьер	-10.0262
кән	-10.0264
▁йөрөү	-10.0268
▁имеет	-10.0268
▁ҡарт	-10.027
in	-10.0275
▁әҙәбиәт	-10.0279
▁университетының	-10.0279
▁белгестәре	-10.0282
▁выставки	-10.0286
▁көндәрҙә	-10.0287
▁составит	-10.0288
▁государственных	-10.0293
35	-10.0295
▁билдәләүенсә	-10.0296
тел	-10.0303
мест	-10.0304
I	-10.0304
▁здоровья	-10.0306
▁шар	-10.0312
▁Кумертау	-10.0312
▁жив	-10.0313
нии	-10.0314
▁нәмә	-10.0314
▁металл	-10.032
иҡтисади	-10.0323
▁размер	-10.0325
▁само	-10.0329
▁һөҙөмтәһендә	-10.0338
▁өҫтәл	-10.0339
▁һыйыр	-10.0339
▁1997	-10.0343
вор	-10.0349
▁качества	-10.0358
▁бирергә	-10.0361
лаштырыу	-10.0364
▁кандидат	-10.0364
▁жен	-10.0366
▁хеҙмәттәр	-10.0367
▁студенттар	-10.0374
▁Де	-10.0377
▁Центр	-10.0379
▁мәсьәләләр	-10.0382
▁финал	-10.0388
▁бейеү	-10.0388
▁эшен	-10.0392
дарын	-10.0395
▁президенты	-10.0397
аются	-10.0397
▁музейы	-10.0398
ент	-10.0401
▁конечно	-10.0401
еле	-10.0406
▁хор	-10.0422
▁наши	-10.0427
▁обл	-10.043
▁ранее	-10.0431
▁решения	-10.0431
тич	-10.0432
газ	-10.0435
▁зал	-10.0438
▁размере	-10.0441
▁көндәрендә	-10.0443
▁ҡайта	-10.0444
▁материалдар	-10.0451
/«	-10.0456
еть	-10.0457
▁экспорт	-10.0461
▁гәзите	-10.0463
▁түңәрәк	-10.0463
▁Уфимский	-10.0471
▁сделать	-10.0471
▁конференции	-10.0472
▁животных	-10.0475
▁результате	-10.0478
▁землях	-10.0479
меш	-10.0479
▁меңгә	-10.048
таш	-10.0487
чет	-10.0488
55	-10.049
▁Кара	-10.0491
▁институтын	-10.0495
▁Ишембай	-10.0496
▁күтәреү	-10.0498
▁края	-10.05
▁Собрания	-10.0503
овать	-10.0503
▁йөрөй	-10.0507
рыу	-10.0508
▁различны	-10.051
▁төркөм	-10.0511
▁врач	-10.0516
▁Нур	-10.0517
▁раза	-10.0519
▁исследования	-10.0525
▁Ис	-10.0525
▁ярым	-10.0526
ъя	-10.0527
▁ҡарарға	-10.053
▁Гран	-10.053
фер	-10.0531
▁зам	-10.0533
нул	-10.0535
▁Иглин	-10.054
ях	-10.0543
▁сәнғәте	-10.0545
▁группа	-10.055
▁сын	-10.0552
▁44	-10.0552
▁аграр	-10.0553
▁билдәләй	-10.0553
▁үткәрҙе	-10.0556
▁Тик	-10.056
лит	-10.0561
▁государственный	-10.0562
34	-10.057
мас	-10.057
ание	-10.057
▁бес	-10.0578
▁систем	-10.0579
▁получил	-10.0585
бол	-10.0585
сар	-10.0592
▁поэт	-10.0595
▁бронза	-10.0595
ски	-10.0596
▁46	-10.0597
▁снег	-10.0598
▁үҫемлектәр	-10.06
38	-10.06
▁работник	-10.0601
▁йыллығына	-10.0602
▁сумма	-10.0603
27	-10.0607
рам	-10.0607
▁первом	-10.0608
мәҫ	-10.0613
▁алдынғы	-10.0619
▁дет	-10.0619
▁опера	-10.0623
▁төрки	-10.0624
▁стол	-10.0625
же	-10.0631
▁первого	-10.0632
▁дөрөҫ	-10.0634
▁отдыха	-10.0637
тай	-10.0642
39	-10.0643
▁обще	-10.0643
▁Алдар	-10.0651
▁кадрҙар	-10.0654
▁Челябинской	-10.0655
▁аҙна	-10.0658
▁выставка	-10.0661
▁үткәрелгән	-10.0671
37	-10.0675
▁То	-10.0682
ень	-10.0688
▁гәзит	-10.069
▁ср	-10.0695
▁финанслау	-10.0695
▁верх	-10.0695
▁йәй	-10.0697
▁һәләтле	-10.0704
мон	-10.0706
▁һөҙөмтәле	-10.0707
▁био	-10.0711
ках	-10.0711
▁малого	-10.0717
▁Ин	-10.0725
26	-10.0725
▁пенсия	-10.073
▁эшҡыуарлыҡ	-10.0732
▁президент	-10.0733
▁образом	-10.0737
итель	-10.074
▁хәрәкәт	-10.0743
▁жил	-10.0748
▁расположен	-10.0751
▁сик	-10.0751
▁ассоциацияһы	-10.0753
▁номер	-10.0753
мар	-10.0755
▁лауреат	-10.0756
▁47	-10.0757
▁способ	-10.0758
▁железнодорожной	-10.076
36	-10.0761
▁ижад	-10.0767
▁иҫәпләнгән	-10.0768
▁дир	-10.077
▁осн	-10.0774
▁арта	-10.078
вой	-10.078
▁государства	-10.0781
▁праздника	-10.0782
кат	-10.0782
▁памятник	-10.0786
аст	-10.0786
▁бүлек	-10.0787
▁милек	-10.0788
▁БГУ	-10.0791
▁Ҡоролтай	-10.0795
▁йыйылма	-10.0796
▁Аҡ	-10.08
дағы	-10.0801
тек	-10.0801
▁уровень	-10.0802
▁иҫкәртеү	-10.0802
▁аҙығы	-10.0806
▁э	-10.0806
▁Глав	-10.0811
АН	-10.0817
сь	-10.0818
▁известно	-10.0818
▁Юҡ	-10.082
▁тиклемге	-10.0822
▁алдан	-10.083
▁Пугачев	-10.0832
▁кафедрой	-10.0832
▁общественных	-10.0833
▁провел	-10.0833
▁конкурсында	-10.0839
▁төбәктең	-10.084
▁Ольга	-10.0841
▁местного	-10.0841
▁проживало	-10.0846
▁алыуға	-10.0848
▁Евгений	-10.0849
▁срок	-10.0856
▁органы	-10.0859
▁эл	-10.0864
▁рабочей	-10.0865
▁программу	-10.0869
ап	-10.0871
▁форма	-10.0871
▁рост	-10.0872
▁получат	-10.0877
дарға	-10.089
▁сиратта	-10.0896
▁киске	-10.0899
▁ҡорамалдар	-10.0903
бан	-10.0908
▁48	-10.0908
▁һалына	-10.091
▁йылдар	-10.091
ления	-10.0911
Көнб	-10.0912
02	-10.0912
95	-10.092
▁агентство	-10.0921
заслуженный	-10.0922
▁аяҡ	-10.0923
▁шөғөлләнә	-10.0925
▁яра	-10.0926
▁Юлаева	-10.0932
47	-10.0935
▁Форум	-10.0947
▁месяц	-10.0947
вести	-10.0948
▁корпус	-10.0956
▁совету	-10.0958
▁етәкселеге	-10.0958
лив	-10.0961
▁хан	-10.0969
▁башланғыс	-10.0973
▁Сауҙа	-10.0973
ическая	-10.0974
быт	-10.0974
▁үткәрә	-10.0977
▁быуын	-10.0978
▁традицион	-10.0981
▁байтаҡ	-10.0984
▁мотлаҡ	-10.0984
▁субъектов	-10.0984
▁изменения	-10.0985
▁делегация	-10.0985
▁йыш	-10.0992
ющих	-10.0994
▁Үҙ	-10.0997
▁орган	-10.1001
ического	-10.1003
▁сәскә	-10.1004
▁Һауа	-10.1005
▁бүленгән	-10.1008
▁эшмәкәрлеген	-10.1008
▁Республиканско	-10.1024
▁Әле	-10.103
▁училище	-10.1033
▁Когда	-10.1033
▁көнөндә	-10.1036
кал	-10.1036
▁башкирском	-10.1037
▁вирус	-10.1039
▁ғинуар	-10.1047
тал	-10.1051
аев	-10.1053
Мәскәү	-10.1055
48	-10.1055
▁бурысы	-10.1058
▁өҫтөндә	-10.1059
▁вам	-10.1062
▁1941	-10.1063
▁әйт	-10.1069
▁оҫталыҡ	-10.1071
▁отрасли	-10.1072
▁высоко	-10.1073
▁ысын	-10.1077
▁выше	-10.1078
▁айында	-10.1081
▁Ө	-10.1081
▁ислам	-10.1084
▁бүленә	-10.1084
▁көндәре	-10.1089
▁үҫә	-10.1091
83	-10.1092
рон	-10.1093
▁балаларға	-10.1094
▁новой	-10.1101
▁земле	-10.1101
▁бензин	-10.1105
▁муз	-10.1106
▁Башкирском	-10.1106
МА	-10.1107
Ка	-10.1109
лож	-10.1111
▁экология	-10.1119
ишь	-10.1122
сер	-10.1125
▁фронт	-10.1126
▁Байрам	-10.1129
▁һиңә	-10.1139
гин	-10.114
ләнде	-10.1143
▁танца	-10.1148
▁журналистов	-10.1152
лиз	-10.1154
▁законодательств	-10.1161
▁һигеҙ	-10.1161
▁майҙанда	-10.1162
▁йортонда	-10.1163
▁учреждениеһы	-10.1164
кер	-10.1164
▁автобус	-10.1165
яр	-10.1166
▁яҙғы	-10.1168
есс	-10.117
▁Бо	-10.1172
▁сельскому	-10.1178
▁белә	-10.1182
▁инвалид	-10.1183
▁әҙәбиәте	-10.1183
▁Президентының	-10.1186
▁Заслуженны	-10.1193
▁канал	-10.1193
▁сағыштырғанда	-10.1194
▁буш	-10.1196
▁ғинуарҙа	-10.1197
▁важно	-10.1197
реш	-10.1198
▁студентов	-10.12
▁Ново	-10.1207
▁тапҡырға	-10.1208
▁представителей	-10.1217
▁Ц	-10.1218
жал	-10.122
ест	-10.1222
▁Йәш	-10.1226
▁Нет	-10.1227
▁ситуации	-10.1228
▁Виктор	-10.1232
▁руб	-10.1234
ндәге	-10.1236
▁41	-10.1239
▁тәржемә	-10.1239
▁представлены	-10.124
▁әҙерләнә	-10.124
▁өй	-10.1251
▁Игорь	-10.1251
▁табылған	-10.1251
▁киләһе	-10.1256
Лучши	-10.1262
▁совр	-10.1263
▁сто	-10.1264
▁Оренбургской	-10.1264
16	-10.127
▁подписал	-10.1273
тты	-10.1275
▁йә	-10.1276
▁Күп	-10.1277
▁үлем	-10.1277
▁балаларҙы	-10.1279
▁тороп	-10.1285
▁хеҙмәтләндереү	-10.1285
▁туп	-10.1286
атор	-10.1287
▁направления	-10.1291
клад	-10.1293
▁ҡушты	-10.1299
▁условий	-10.1307
иг	-10.1309
▁Ғафури	-10.131
▁депутаттары	-10.131
рит	-10.1312
тура	-10.1313
нь	-10.1313
▁Мәҫәлән	-10.1318
▁участия	-10.1318
Көнс	-10.1323
▁микро	-10.1323
▁уҙғарыу	-10.1331
▁1987	-10.1332
▁өлкә	-10.1334
▁етәкс	-10.1337
▁деревне	-10.1341
▁башлыса	-10.1349
▁миҙал	-10.135
▁своим	-10.135
▁конференция	-10.1351
▁компьютер	-10.1352
▁тыс	-10.1357
ющие	-10.1359
▁оҙон	-10.136
▁төрҙәре	-10.1362
▁мнению	-10.1364
67	-10.1378
тон	-10.138
▁эта	-10.1381
▁Оло	-10.1382
пов	-10.1385
огласно	-10.1386
▁итеүсе	-10.1389
▁начал	-10.139
дов	-10.1394
▁нашего	-10.1395
▁хатта	-10.1397
кан	-10.14
рез	-10.1401
▁художество	-10.1404
▁участники	-10.141
▁сәфәре	-10.1415
▁победителей	-10.1416
▁кр	-10.1418
▁проблема	-10.1418
33	-10.1422
23	-10.1425
▁российских	-10.1432
▁Бар	-10.1434
▁создание	-10.1436
ите	-10.1436
▁2022	-10.1436
▁материал	-10.144
49	-10.144
▁алмай	-10.1444
▁вод	-10.1448
▁архитектура	-10.1448
▁Төньяҡ	-10.1454
▁күргән	-10.1454
▁открытие	-10.1455
▁йылғы	-10.1459
хим	-10.1462
обр	-10.1464
▁МЧС	-10.1467
ғә	-10.1468
кар	-10.1471
олог	-10.1475
Ү	-10.148
▁һеҙҙең	-10.1483
▁орден	-10.1484
ана	-10.1485
▁шундай	-10.1487
▁сыр	-10.1492
▁Указ	-10.1494
▁айырыла	-10.1501
граждён	-10.1514
▁майҙан	-10.152
▁сел	-10.1524
▁отдел	-10.1527
09	-10.1531
ций	-10.1533
▁рождения	-10.1537
...»	-10.154
▁работают	-10.1543
▁тикшерҙе	-10.1548
▁һалынған	-10.1559
▁состоялось	-10.1559
▁эштәрен	-10.156
▁дек	-10.1562
▁куп	-10.1563
▁Ан	-10.1564
▁52	-10.1564
▁йөк	-10.1568
сел	-10.1572
тели	-10.1575
▁Те	-10.1577
▁хат	-10.1583
▁эс	-10.1584
▁күләмендә	-10.1585
мәгән	-10.1587
▁па	-10.1591
-20	-10.1592
▁глаза	-10.1596
14	-10.16
год	-10.1602
▁алдағы	-10.1603
▁Доктор	-10.1606
рып	-10.1608
54	-10.1609
▁һеҙ	-10.1613
▁архив	-10.1617
▁возможности	-10.1619
▁Ир	-10.1622
ря	-10.1622
▁әҙәби	-10.1625
▁сразу	-10.1629
Ба	-10.1636
▁широко	-10.1637
тып	-10.164
▁әҙерләнгән	-10.1641
96	-10.1643
▁бир	-10.1648
▁Урала	-10.1652
▁молока	-10.1653
орон	-10.1655
▁месяцев	-10.1655
▁Роспотребнадзор	-10.1655
▁5-	-10.1656
▁оно	-10.1661
▁ежегодно	-10.1673
▁предложил	-10.1677
▁зале	-10.1678
▁центре	-10.1679
▁кәрәкле	-10.168
рас	-10.1681
▁һан	-10.1682
▁Министерств	-10.1686
▁Петр	-10.169
▁уңыш	-10.1691
75	-10.1691
▁почта	-10.1697
сол	-10.1698
▁стать	-10.1699
▁растений	-10.1699
мәҙәни	-10.1702
▁мемориаль	-10.1704
ирован	-10.1704
▁күргәҙмәһе	-10.1704
▁хаҡтар	-10.1706
▁вечер	-10.1707
▁БДУ	-10.1713
▁һөйләй	-10.1716
▁встрече	-10.1721
▁информационно	-10.1722
▁честь	-10.1724
баева	-10.1725
▁ҡатнашасаҡ	-10.1727
ром	-10.173
ғас	-10.1734
▁палаты	-10.1735
һыу	-10.1738
▁ерҙәрендә	-10.1739
▁Азамат	-10.1743
▁Только	-10.1747
▁сағыу	-10.1747
тө	-10.1748
▁Мал	-10.1749
31	-10.1753
▁теге	-10.1756
▁тикшерелде	-10.1758
Са	-10.1761
▁балыҡ	-10.1764
тарҙан	-10.1765
тарының	-10.1766
лич	-10.1766
57	-10.1769
▁среды	-10.1771
▁яу	-10.1772
▁сказала	-10.1772
▁масштаб	-10.1773
▁Шу	-10.1777
▁Международны	-10.1778
▁Торлаҡ	-10.1781
▁рөхсәт	-10.1782
▁документтар	-10.1782
▁фельдшер	-10.1785
▁улице	-10.1787
▁еткән	-10.1787
изации	-10.1788
▁кур	-10.179
▁Тәүге	-10.1792
иков	-10.1793
▁Елена	-10.1794
▁аныҡ	-10.1795
▁сем	-10.1798
▁Та	-10.1799
▁пассажир	-10.1802
эн	-10.1805
▁Европы	-10.1806
▁ята	-10.1806
▁чемпионаты	-10.1824
▁фекеренсә	-10.1831
32	-10.1831
▁ветеранов	-10.1832
▁крас	-10.1835
▁Рахимов	-10.1837
▁процесс	-10.1847
▁туризма	-10.1849
▁имя	-10.1851
▁нефтехим	-10.1852
РА	-10.1853
▁кам	-10.1854
▁округ	-10.1856
▁власы	-10.1857
▁задача	-10.1859
▁произв	-10.1865
▁спирт	-10.1866
▁китабы	-10.187
▁ҡарамаҫтан	-10.1878
▁бүлеү	-10.1878
▁уникаль	-10.1882
▁даруғаһы	-10.1882
▁создания	-10.1886
▁тәү	-10.1886
▁завода	-10.1889
▁участков	-10.189
▁права	-10.1893
ёл	-10.19
▁стар	-10.19
пл	-10.1903
нут	-10.1904
62	-10.1905
кс	-10.1907
▁тышҡы	-10.1909
ался	-10.1909
▁годах	-10.1911
ЛЕ	-10.1914
07	-10.1917
▁заказ	-10.1918
▁иҫәпләй	-10.1921
тҡан	-10.1922
▁республиканских	-10.1926
▁основном	-10.1929
▁танышты	-10.193
▁хөкүмәт	-10.1939
лег	-10.195
нуть	-10.1951
▁премияһы	-10.1954
▁Пол	-10.1955
ины	-10.1957
▁ҡуйған	-10.1961
рог	-10.1964
▁оркестр	-10.1966
▁национальной	-10.1968
▁көнөнә	-10.1968
шев	-10.1974
▁вручил	-10.1974
▁40-	-10.1975
▁министрлығында	-10.1977
▁эсенә	-10.1986
▁Һамар	-10.1986
чик	-10.1989
ван	-10.1995
▁2,5	-10.1995
▁вопросов	-10.2005
ица	-10.2009
▁енәйәт	-10.201
▁дәғүә	-10.2011
▁эшмәкәрлек	-10.2015
▁эшләп	-10.2017
▁футбол	-10.2017
▁дин	-10.2022
ирования	-10.2023
▁ойоштора	-10.2028
аның	-10.2028
▁үҙенсәлекле	-10.2035
▁команды	-10.2035
▁һораны	-10.2035
▁область	-10.2039
ғайны	-10.2045
бил	-10.2048
▁языков	-10.2048
▁мало	-10.2057
C	-10.2061
▁S	-10.2062
▁пром	-10.2062
▁осорҙа	-10.2063
▁потом	-10.2064
пор	-10.2066
▁принято	-10.2077
▁объявлен	-10.2083
65	-10.2084
▁торҙо	-10.2084
▁продуктов	-10.2097
▁Еще	-10.2099
евой	-10.21
▁проекттар	-10.2105
▁күрһәтте	-10.2105
▁рейтинг	-10.2109
▁Там	-10.2112
▁ултырышы	-10.2112
▁структур	-10.2113
58	-10.2116
▁статусын	-10.2118
▁лишь	-10.2123
▁башына	-10.2126
▁губернатор	-10.2127
▁Теперь	-10.2132
▁МВД	-10.2132
%)	-10.2134
▁Федерацияһының	-10.2138
▁ответил	-10.2138
▁III	-10.2141
▁академия	-10.2142
▁академияһы	-10.2144
▁яҙ	-10.2144
▁Пермь	-10.2149
▁85	-10.2152
▁раздел	-10.2155
▁номинацияһында	-10.2159
▁ваҡиға	-10.216
▁сайт	-10.2166
гар	-10.2168
▁алына	-10.217
▁транспорта	-10.217
53	-10.2172
▁Науч	-10.2172
иф	-10.2175
Стерлитамакского	-10.2175
77	-10.2179
▁би	-10.218
▁1000	-10.218
цов	-10.218
▁Поэтому	-10.2182
▁Зи	-10.2182
▁Основана	-10.2185
▁материалы	-10.2191
чев	-10.2193
▁состоялась	-10.2194
дәре	-10.2194
▁комбинаты	-10.2195
▁название	-10.2197
▁Башҡортостанға	-10.2199
▁телен	-10.2205
ләгән	-10.2206
▁Гор	-10.2206
▁Председатель	-10.2219
▁иртәнге	-10.222
▁Себер	-10.2221
▁кол	-10.2221
▁тр	-10.2222
▁файҙаланыуға	-10.2227
▁редактор	-10.2231
▁төр	-10.2238
һығыҙ	-10.2238
ләне	-10.224
64	-10.224
▁Ленинград	-10.225
▁Төҙөлөш	-10.2255
▁ҡатнаш	-10.2256
▁общественной	-10.2261
▁өлк	-10.2262
▁гл	-10.2265
▁кешенең	-10.2265
▁һуғышында	-10.2274
▁үҫемлек	-10.2275
▁названием	-10.228
▁первую	-10.2281
йыҡ	-10.2285
мимо	-10.2287
3.	-10.2287
кө	-10.2291
▁оборудования	-10.2291
рев	-10.2292
Китап	-10.2294
▁студенты	-10.23
дать	-10.2302
▁Су	-10.2303
▁вакансий	-10.2306
▁неделю	-10.2306
улла	-10.2308
▁ағай	-10.231
▁башҡарыу	-10.2314
▁гуманитар	-10.2317
▁массово	-10.2318
▁Рәхимов	-10.2319
▁утвержден	-10.232
овод	-10.2321
▁бор	-10.2324
ләргә	-10.2332
▁туғыҙ	-10.2333
▁кантон	-10.2336
▁дан	-10.2336
▁ысулдары	-10.2343
▁курс	-10.2345
▁спектакле	-10.2345
тәрҙе	-10.2346
▁ауырыу	-10.2348
ас	-10.235
изация	-10.235
▁глав	-10.2352
56	-10.2357
станов	-10.2357
▁1988	-10.2359
▁разработаны	-10.2361
▁ближайши	-10.2361
93	-10.2362
▁газета	-10.2362
▁специалисты	-10.2365
▁сотрудник	-10.2366
▁ғәҙәттә	-10.2368
▁пути	-10.2369
▁уҡыусылар	-10.2377
▁Илдар	-10.2381
▁малай	-10.2383
▁мәсьәләләрен	-10.239
42	-10.239
46	-10.2393
▁находятся	-10.2394
▁среднем	-10.2395
▁положение	-10.2396
▁гости	-10.24
▁мөмкинлектәре	-10.2406
▁тәғәйенләнде	-10.2407
▁1986	-10.2409
▁Юлай	-10.2411
▁кадров	-10.2422
▁книги	-10.2424
▁меры	-10.243
вали	-10.2432
▁Мә	-10.2439
сад	-10.244
er	-10.2441
▁мәсьәлә	-10.2442
▁мой	-10.2443
▁территориаль	-10.2448
▁Бөрйән	-10.2448
▁Программа	-10.2452
лыҡҡа	-10.2453
▁методы	-10.2453
▁нефти	-10.2456
▁данные	-10.2456
▁Ранее	-10.2457
әс	-10.2457
▁Урта	-10.2462
▁недели	-10.2465
▁аҙағына	-10.2467
▁средняя	-10.2467
▁писателей	-10.247
▁киләсәк	-10.2471
чал	-10.2474
▁Их	-10.2481
▁программаһын	-10.2484
▁обеспечения	-10.2485
▁булдырылған	-10.2485
пар	-10.2492
▁Член	-10.2497
▁спросил	-10.2499
▁ерҙә	-10.2501
▁ваҡ	-10.2502
▁Аксаков	-10.2504
▁друг	-10.2509
▁төҙөкләндереү	-10.2511
мол	-10.2513
▁случае	-10.2515
▁городской	-10.2516
▁студенттары	-10.2525
68	-10.2525
▁эште	-10.2528
▁стоит	-10.2532
город	-10.2533
▁получения	-10.2537
▁должно	-10.2538
▁аҙнала	-10.2546
▁запас	-10.2546
елгән	-10.2548
▁матч	-10.2551
▁1980	-10.2551
ват	-10.2554
сле	-10.2557
дем	-10.2563
▁первое	-10.2563
▁ителәсәк	-10.2563
сыһы	-10.2564
град	-10.2567
як	-10.2569
▁прошли	-10.2573
▁250	-10.2575
▁средней	-10.2575
▁Нефтекама	-10.2583
▁хәйриә	-10.2585
▁ойошторолдо	-10.2585
рус	-10.2586
▁Һәм	-10.2587
▁Екатеринбург	-10.2588
▁кого	-10.2592
▁детского	-10.2592
ияһы	-10.2593
ложен	-10.2597
зем	-10.26
▁след	-10.2603
▁Ы	-10.2608
хан	-10.2612
ред	-10.2614
▁килограмм	-10.2614
стве	-10.2615
▁өлөшөн	-10.2616
овал	-10.2617
▁Былтыр	-10.262
▁земель	-10.2621
▁системаһын	-10.2627
▁анти	-10.2629
▁трудов	-10.2629
кам	-10.2633
▁местами	-10.2633
89	-10.2642
▁доклад	-10.2642
▁йүнәлеш	-10.2647
52	-10.2649
▁армии	-10.265
▁Бабич	-10.2655
▁Хөкүмәтенең	-10.2656
▁сараларын	-10.266
▁бәйләнештәр	-10.2661
овое	-10.2661
▁благотворительн	-10.2661
▁прив	-10.2665
▁Көнсығыш	-10.2666
▁крупных	-10.2668
▁семь	-10.267
ларының	-10.2674
мед	-10.2682
99	-10.269
▁исеменән	-10.269
▁башлығының	-10.2694
▁контракт	-10.2696
▁сил	-10.2697
▁8-	-10.2704
▁сәйәсәт	-10.271
чу	-10.271
▁тупраҡ	-10.2711
әлә	-10.2711
▁әлбиттә	-10.2714
▁ҡараш	-10.2715
эр	-10.2718
▁Га	-10.2722
76	-10.2725
▁берекмәһе	-10.2726
▁сельских	-10.2728
▁уҡыта	-10.2728
▁чего	-10.2729
▁насар	-10.274
▁роман	-10.2741
▁Киров	-10.2744
▁вузов	-10.2752
▁аң	-10.2755
▁оҙаҡ	-10.276
▁тиң	-10.276
нды	-10.2761
▁57	-10.2764
готов	-10.2764
▁отношения	-10.2766
езд	-10.2767
▁технология	-10.2768
һенә	-10.2768
▁ААЙ	-10.2769
бат	-10.2772
▁официально	-10.2774
▁ответ	-10.2774
нд	-10.2778
▁произ	-10.2782
дель	-10.2791
05	-10.2795
▁бәйләнеш	-10.2798
▁уҡыусы	-10.2806
▁көндөҙгө	-10.2806
▁люб	-10.2806
ической	-10.2807
шә	-10.2814
▁эшҡыуарҙар	-10.2814
▁проблемам	-10.2814
Москва	-10.2815
▁дини	-10.2817
▁булмай	-10.2822
06	-10.2823
ике	-10.2824
▁отношений	-10.2826
данный	-10.2828
вол	-10.283
▁шесть	-10.2831
▁памяти	-10.2833
94	-10.2833
▁Кинйә	-10.2833
▁туристик	-10.2834
▁отчет	-10.2835
ғол	-10.2836
ёв	-10.284
емде	-10.2841
▁54	-10.2843
ъ	-10.2843
▁должна	-10.2846
фор	-10.2847
исто	-10.2848
▁воен	-10.2854
▁тәьҫир	-10.2861
▁вакансиялар	-10.2863
▁тауар	-10.2864
▁нефт	-10.2867
▁зав	-10.2869
ыуы	-10.2869
▁среднего	-10.2871
▁Уҙған	-10.2872
▁аталған	-10.2873
▁ничего	-10.2873
▁Эйе	-10.288
Мы	-10.2883
▁режим	-10.2884
стей	-10.2885
▁тамамланды	-10.2885
▁технологиялар	-10.2887
▁инвестициялар	-10.2891
дав	-10.2894
ические	-10.2895
це	-10.2897
▁Ринат	-10.2899
▁Москвы	-10.2899
▁уҡытыусылар	-10.2901
▁фатир	-10.2901
рай	-10.2902
▁мор	-10.291
▁Алла	-10.2912
пы	-10.2914
▁һарайы	-10.2914
▁(347)	-10.2915
▁Йәмәғәт	-10.2921
▁гостей	-10.2925
▁участием	-10.2926
▁комплекслы	-10.2926
ИК	-10.2931
▁населен	-10.2931
▁повышение	-10.2935
ино	-10.2937
▁стоимость	-10.2938
▁сравнению	-10.2939
▁комитетының	-10.2945
лом	-10.2949
ыбыҙ	-10.2951
бит	-10.2951
▁Мортаза	-10.2952
▁уңында	-10.2955
▁осоронда	-10.2955
ировал	-10.2956
▁өлөшөндә	-10.297
▁повышения	-10.2971
▁башкиры	-10.2974
▁колхоз	-10.2976
▁яҙылған	-10.2979
▁Һеҙ	-10.2979
▁Ленина	-10.2981
▁преподаватель	-10.2982
▁һаҡлап	-10.2982
▁әлегә	-10.2982
▁метод	-10.2984
Ку	-10.2991
▁линия	-10.2991
▁шәкәр	-10.2992
ланып	-10.2998
▁үҫмерҙәр	-10.2999
ушка	-10.3003
▁яҙыусы	-10.3005
▁Лауреат	-10.3005
▁йыйылған	-10.3005
▁Дүртөйлө	-10.3005
▁кис	-10.3009
▁провести	-10.301
▁регионах	-10.301
▁Рустэма	-10.301
▁Уфимском	-10.3014
▁Хамитова	-10.3017
▁тәрбиә	-10.3019
▁Руководитель	-10.3019
рад	-10.3019
▁изге	-10.3021
бин	-10.3024
▁Ҡытай	-10.3026
АТ	-10.3026
▁49	-10.3038
▁күҙәтелә	-10.3038
▁иҫкә	-10.3038
▁башҡалар	-10.3047
▁стихи	-10.3048
▁сифатын	-10.3052
▁отметили	-10.3054
▁Күмертау	-10.3055
▁доме	-10.3055
▁таба	-10.3058
Не	-10.3058
▁многие	-10.3059
▁хәтер	-10.3063
▁должность	-10.3065
▁спектакль	-10.3073
▁первые	-10.3078
дарҙа	-10.308
▁иҫәбе	-10.3083
рма	-10.309
▁июнь	-10.3095
▁Әбйәлил	-10.3097
ясь	-10.3097
▁урынына	-10.3097
▁советына	-10.3099
▁Чер	-10.31
мын	-10.3102
▁ҡалаһының	-10.3105
▁музыкаль	-10.3106
▁Хөкүмәт	-10.3108
зе	-10.3122
альные	-10.3126
▁степени	-10.3127
▁Бу	-10.3128
▁включ	-10.3131
▁мер	-10.3132
▁бирәсәк	-10.3135
оба	-10.3136
▁кит	-10.3137
▁Ми	-10.3138
▁хөкүмәте	-10.3139
тикшеренеү	-10.314
▁деревни	-10.314
проект	-10.3148
▁Благовещен	-10.3155
илось	-10.3157
▁заман	-10.3159
ностью	-10.3161
▁алыҫ	-10.3162
Мин	-10.3163
сыҡ	-10.3165
АҠ	-10.3165
▁каждого	-10.3168
▁ҡулланыусылар	-10.3169
▁чемпионат	-10.3169
▁поэта	-10.3171
▁своем	-10.3175
▁Украина	-10.3177
▁уфимском	-10.3179
ең	-10.3186
▁Фестиваль	-10.3188
▁санитар	-10.3189
▁Тур	-10.3191
▁Карима	-10.3194
▁хоҡуҡи	-10.3199
▁тор	-10.3199
▁баҫма	-10.32
Ь	-10.3203
Ту	-10.3215
▁фа	-10.3215
▁һуңынан	-10.322
▁артты	-10.3221
▁музея	-10.3223
▁долго	-10.3228
▁особенно	-10.323
▁ц	-10.3232
▁Доме	-10.3232
▁образ	-10.3235
▁лидер	-10.3238
твор	-10.3241
▁ярты	-10.3244
▁күңел	-10.3244
▁үҙәгенең	-10.3246
▁ҡалыу	-10.3251
▁килеш	-10.3251
Нур	-10.3252
▁бурыс	-10.3262
85	-10.3271
шен	-10.3271
енсә	-10.3277
юр	-10.3278
▁һаҡлана	-10.328
енного	-10.3281
Про	-10.3284
▁округында	-10.3286
шу	-10.3288
сәнәғәт	-10.3292
▁Сарбаев	-10.3293
шәр	-10.3297
▁юридик	-10.3304
▁һалҡын	-10.3305
▁тәрән	-10.3307
us	-10.3309
ведение	-10.3311
▁үҙидара	-10.3319
▁ордены	-10.332
▁ғүмер	-10.3322
▁1975	-10.3322
03	-10.3324
шы	-10.3326
c	-10.3328
▁успешно	-10.3329
▁заседания	-10.3333
▁башлыҡтары	-10.3333
тәрҙең	-10.3334
▁делам	-10.3334
▁кос	-10.3337
▁Оренбург	-10.334
▁деньги	-10.3341
летия	-10.3343
▁үҫешенә	-10.3345
▁четырех	-10.3346
▁руки	-10.3347
▁төштө	-10.3352
маш	-10.3354
она	-10.3355
▁солдат	-10.3355
▁нығытыу	-10.3355
▁хаҡ	-10.3359
▁поздравил	-10.336
▁многих	-10.3361
мир	-10.3362
▁1930	-10.3365
44	-10.3371
▁первой	-10.3372
▁значит	-10.3372
n	-10.3372
▁жилищно	-10.3376
▁Ел	-10.3377
▁муж	-10.3378
▁1945	-10.3378
▁буйына	-10.3381
▁штаб	-10.3385
):	-10.3389
▁рад	-10.3403
▁(3	-10.3408
▁земля	-10.3408
▁школе	-10.3409
▁сезон	-10.3409
▁ойошма	-10.3411
▁парламент	-10.3415
▁полу	-10.342
▁авг	-10.3423
▁пят	-10.3426
▁Оренб	-10.343
▁учитель	-10.3431
▁территория	-10.3435
рин	-10.3436
▁эксперт	-10.3436
▁ултыра	-10.3436
▁официальном	-10.3437
пат	-10.3444
▁подготовке	-10.3444
▁композитор	-10.3447
ирование	-10.3449
▁сираттағы	-10.3451
▁книг	-10.3453
▁организован	-10.3454
поль	-10.3454
▁бассейн	-10.3455
▁800	-10.3455
▁руководители	-10.3458
Об	-10.3458
сим	-10.3458
кус	-10.3459
▁депутатов	-10.346
▁1965	-10.3461
▁машиналар	-10.3462
▁700	-10.3463
▁ҡунаҡтар	-10.3464
▁коммуналь	-10.3467
ению	-10.3467
▁Яңауыл	-10.3468
леп	-10.3472
▁иҫ	-10.3472
▁специально	-10.3473
ило	-10.3475
▁1943	-10.3475
▁Шишмә	-10.3476
маҡ	-10.3483
ылды	-10.3483
▁яҡ	-10.3484
▁сад	-10.3485
▁национальных	-10.3486
леген	-10.3487
сылары	-10.3487
▁начали	-10.3489
▁Научны	-10.3491
ования	-10.3494
▁моно	-10.3496
чен	-10.3497
▁элемтә	-10.3497
▁реаль	-10.3499
▁школах	-10.3499
ОН	-10.35
▁экономического	-10.35
▁яртыһында	-10.3501
▁прогноз	-10.3501
▁мәсьәләһе	-10.3503
▁этабы	-10.3506
▁ойошмалар	-10.3515
▁Мостай	-10.3515
▁осрай	-10.3517
тарына	-10.3521
88	-10.3523
▁6-	-10.3526
▁делать	-10.3538
▁АН	-10.3546
▁1960	-10.3547
▁ағымдағы	-10.355
▁үтәү	-10.355
▁һалды	-10.3551
ена	-10.3555
▁етди	-10.3557
▁ус	-10.3559
▁акцияһы	-10.356
84	-10.3561
стар	-10.3563
коп	-10.3563
▁еңеүсе	-10.3563
ток	-10.3566
▁юлдары	-10.3566
▁исеменә	-10.3569
СКИЙ	-10.3569
▁кабинет	-10.3571
син	-10.3572
▁прошла	-10.3574
▁Акция	-10.3574
▁наш	-10.3577
уют	-10.358
▁шаг	-10.3582
▁Кәрим	-10.3583
һендә	-10.3583
▁детям	-10.3586
пит	-10.3586
▁ҡош	-10.3587
▁95	-10.3589
▁городских	-10.3589
ены	-10.3592
ари	-10.3593
▁Ди	-10.3595
▁53	-10.3596
прос	-10.3597
▁этому	-10.3598
▁изделий	-10.3599
▁Минең	-10.3601
▁Дим	-10.3603
▁итоги	-10.3605
▁машин	-10.3605
▁56	-10.3611
▁пациент	-10.3617
▁тын	-10.3618
▁общего	-10.362
▁ҡап	-10.362
тырға	-10.3621
▁ФА	-10.3627
▁форуме	-10.3628
▁борьбе	-10.3628
▁ситуация	-10.3628
▁асылған	-10.3628
▁әҫәрҙәре	-10.3629
▁Фәндәр	-10.3631
▁йөрәк	-10.3631
оф	-10.3632
▁Ата	-10.3635
▁үр	-10.3635
фр	-10.3636
▁квартир	-10.3639
▁Фонд	-10.364
04	-10.3641
▁эшлекле	-10.3642
▁вновь	-10.3642
▁ещё	-10.3642
том	-10.3644
▁ҡыҙыҡлы	-10.3645
▁Рос	-10.365
▁11-	-10.3651
▁туҡта	-10.3652
78	-10.3654
▁таныш	-10.3655
кол	-10.3655
▁ста	-10.3655
▁фильмы	-10.3661
жан	-10.3663
or	-10.3668
▁Думаһы	-10.3669
▁эфир	-10.367
Ҙ	-10.3671
▁ҡатнашырға	-10.3672
▁Ирина	-10.3676
▁58	-10.3683
образ	-10.3685
ятся	-10.3685
▁пособие	-10.3686
▁спец	-10.3688
▁сказать	-10.3692
мал	-10.3694
очка	-10.3695
▁Новгород	-10.37
▁поэтому	-10.37
ует	-10.3701
ләнгән	-10.3703
▁килеү	-10.371
▁всю	-10.3712
▁профсоюз	-10.3717
няя	-10.3718
▁һинең	-10.3718
▁эргәһендәге	-10.3719
-5	-10.372
59	-10.372
▁снова	-10.3722
▁күрһәткес	-10.3722
ерәк	-10.3727
▁йома	-10.373
▁состоялся	-10.3731
▁клуба	-10.3731
▁поле	-10.3731
▁V	-10.3733
▁тороу	-10.3736
▁йөрөтә	-10.3738
▁награды	-10.3741
▁офис	-10.3744
▁концерты	-10.3745
▁создать	-10.3745
▁Спорт	-10.3751
98	-10.3752
▁используют	-10.3752
▁баҫылған	-10.3757
▁яңынан	-10.3758
▁наибол	-10.3759
▁продукты	-10.3759
▁тормошо	-10.3762
▁51	-10.3773
+	-10.3775
▁Тимур	-10.3776
мыш	-10.3777
▁самолет	-10.3777
▁совсем	-10.3778
▁журнал	-10.3779
▁считает	-10.3781
яһы	-10.3785
▁Температура	-10.3786
▁етәкселегендә	-10.3787
▁отряды	-10.3787
▁причин	-10.3795
▁именно	-10.3797
▁ССР	-10.3801
Иң	-10.3803
▁Октябрь	-10.3804
▁кешеләрҙең	-10.3804
▁студент	-10.3805
▁март	-10.3805
▁ашырыла	-10.3806
▁Ҡырмыҫҡалы	-10.3809
▁позволит	-10.3815
▁эшсе	-10.3815
▁дала	-10.382
сон	-10.382
▁Москва	-10.3822
▁Рә	-10.3825
▁сир	-10.3826
елә	-10.3827
очный	-10.3828
▁телевизион	-10.383
▁бөтөнләй	-10.383
ргә	-10.3833
ование	-10.3833
▁райондарҙа	-10.3834
▁бүләктәр	-10.3834
батыр	-10.3837
▁целях	-10.3845
пре	-10.3853
▁урынға	-10.3856
▁һәйбәт	-10.3859
▁региональных	-10.386
кры	-10.386
предпринимателей	-10.3861
▁күрһәтелгән	-10.3861
▁край	-10.3862
овтың	-10.3865
▁өйрәнелә	-10.3874
сеһе	-10.3875
91	-10.3875
▁весь	-10.3876
рҙе	-10.3877
УР	-10.3881
▁Правительство	-10.3882
▁другой	-10.3885
▁февр	-10.3888
▁тогда	-10.3888
▁обучения	-10.3889
▁1978	-10.3891
маҫ	-10.3892
▁имеют	-10.3897
▁сев	-10.3899
▁тәҡдимдәр	-10.3902
▁медицинско	-10.3903
▁матди	-10.3905
мән	-10.3907
▁ҡыҙыл	-10.3908
класс	-10.3909
алы	-10.3918
▁международного	-10.3919
йым	-10.392
▁асыҡлау	-10.3924
▁компаний	-10.3927
▁чемпионата	-10.3928
▁завоевал	-10.3928
▁полностью	-10.3933
▁индергән	-10.3935
очных	-10.3936
▁технологиялары	-10.3936
очные	-10.3937
▁1970	-10.3937
▁шарттарында	-10.3941
смотря	-10.3944
▁сферы	-10.3948
▁родителей	-10.3948
▁библиотека	-10.3948
▁благо	-10.395
сән	-10.3951
енным	-10.3952
97	-10.396
▁ЕГЭ	-10.3962
▁осрағы	-10.3965
▁ей	-10.3973
▁сама	-10.3974
▁1900	-10.3974
▁федеральных	-10.3976
▁большая	-10.3977
▁балалы	-10.3977
▁ГУП	-10.3978
▁проводятся	-10.3982
▁килеүе	-10.3985
87	-10.3986
Беҙ	-10.3987
▁һеҙгә	-10.3989
▁лечения	-10.3991
▁таҙартыу	-10.3991
▁1972	-10.3994
▁мог	-10.3998
▁питания	-10.4006
вен	-10.4008
▁ҡарары	-10.401
евский	-10.401
▁оперативном	-10.4013
его	-10.4018
▁белгес	-10.4018
Алтын	-10.4019
▁унитар	-10.4021
вес	-10.4022
▁объекты	-10.4023
▁1963	-10.4024
шка	-10.4025
▁залы	-10.4025
▁тармаҡ	-10.4026
▁Тимер	-10.4032
▁филиал	-10.4034
▁материалдары	-10.4034
▁услуги	-10.4036
▁войне	-10.4038
▁кәңәш	-10.4038
▁профессионально	-10.4041
▁Тим	-10.4041
гер	-10.4045
ылған	-10.4047
▁учреждение	-10.4048
әсә	-10.4049
▁тапшырылды	-10.4051
22	-10.4053
1.19	-10.4054
▁ансамбль	-10.4057
▁зерна	-10.4057
▁тотороҡло	-10.4066
66	-10.407
▁потому	-10.4072
▁театре	-10.4074
▁жел	-10.4076
▁Булат	-10.4078
▁бед	-10.4079
▁етте	-10.4079
▁сотрудничестве	-10.4081
▁ҡотланы	-10.4081
▁халыҡтары	-10.4082
▁мобиль	-10.4082
▁күсмә	-10.4085
▁сервис	-10.4087
овыми	-10.4087
форм	-10.409
▁әйләнеше	-10.4093
▁ҡуя	-10.4094
▁меньше	-10.4095
▁достаточно	-10.4096
▁барырға	-10.4096
▁федеральном	-10.4097
▁Ильдар	-10.4099
▁путь	-10.41
рова	-10.41
▁Бирск	-10.4106
▁территорий	-10.411
▁рекорд	-10.4111
▁көйләү	-10.4111
▁һумлыҡ	-10.4112
▁Анна	-10.4114
▁кәм	-10.4114
▁кисә	-10.4115
Ак	-10.4122
—19	-10.4127
инов	-10.4128
чь	-10.4128
0;	-10.4131
▁Уға	-10.4131
▁Көн	-10.4133
▁пунктов	-10.414
▁рынке	-10.4141
▁яуаплы	-10.4143
▁республиканской	-10.4144
an	-10.4144
▁йәшел	-10.4145
▁график	-10.4148
▁турнир	-10.4149
▁местах	-10.4151
ницы	-10.4153
▁постоянно	-10.4156
▁күренекле	-10.4157
▁доступ	-10.4158
ТАР	-10.4162
овую	-10.4162
▁үҙен	-10.4164
▁(1997)	-10.4165
▁Театр	-10.4166
d	-10.4168
▁первым	-10.4171
▁какой	-10.4172
▁сумму	-10.4172
▁(1985)	-10.4173
▁Шә	-10.4173
▁Ур	-10.4174
▁чер	-10.418
▁бесплатно	-10.418
шина	-10.4181
41	-10.4181
ләнеп	-10.4183
гул	-10.4185
чер	-10.4186
▁актер	-10.4187
СК	-10.4189
▁агентства	-10.419
▁Дж	-10.4194
▁ночь	-10.4197
▁быстро	-10.4199
▁результаты	-10.42
▁курсы	-10.4203
▁1966	-10.4204
▁театрында	-10.4214
▁мәсьәләләрҙе	-10.4216
▁печати	-10.4216
▁Германия	-10.422
▁мар	-10.4223
▁Магнитогорск	-10.4227
▁етә	-10.4228
ителей	-10.4229
▁задачи	-10.4232
▁Свердловск	-10.4233
▁выплаты	-10.4236
▁составы	-10.4236
▁Дан	-10.4237
▁12-	-10.4239
бел	-10.4245
▁аръяғы	-10.4245
▁саҡрым	-10.4247
▁Бала	-10.4247
әсәләр	-10.4248
▁возраста	-10.425
ИЛ	-10.4254
▁түләүҙәр	-10.4254
▁голос	-10.4254
▁организация	-10.4256
▁авария	-10.4262
▁поиск	-10.4263
▁Татарстана	-10.4266
▁балаларҙың	-10.427
▁союз	-10.427
▁национального	-10.427
альный	-10.4271
▁Бөгөнгө	-10.4277
▁хоҡуҡтарын	-10.4278
▁көнкүреш	-10.4287
▁яҙҙы	-10.4288
▁призёр	-10.4292
▁йөҙө	-10.4292
▁алға	-10.4298
енно	-10.4298
▁Иҫке	-10.4301
▁отделение	-10.4304
▁ген	-10.4304
▁көнгә	-10.4305
▁балета	-10.4307
лем	-10.4307
▁бөгөнгө	-10.4309
▁ближайше	-10.4309
▁отряд	-10.4309
▁народных	-10.4313
▁цел	-10.4313
ченко	-10.4319
▁заработн	-10.432
▁Бур	-10.4321
▁Более	-10.4323
▁62	-10.4325
кле	-10.4331
▁сәс	-10.4332
81	-10.4334
▁Ле	-10.4338
▁партияһы	-10.4339
▁жить	-10.4339
▁получают	-10.4339
▁открыт	-10.4344
▁рядом	-10.4344
дом	-10.4347
▁исполнитель	-10.4351
▁Айрат	-10.4354
▁1942	-10.4357
▁опубликован	-10.436
▁Международного	-10.4361
▁Всемирно	-10.4364
▁проекттары	-10.4365
▁урындары	-10.4366
▁цвет	-10.438
зер	-10.4381
▁боронғо	-10.4384
▁трактор	-10.4386
▁поход	-10.4386
▁табип	-10.4387
▁юлдаш	-10.4388
51	-10.4393
▁пожар	-10.4394
▁парламента	-10.4397
елде	-10.4401
▁уйындары	-10.4406
▁мосолман	-10.4407
жив	-10.4408
▁Дня	-10.4408
либо	-10.4415
▁вариант	-10.4415
▁школьников	-10.4418
▁лайыҡлы	-10.4419
▁опер	-10.4419
шыу	-10.442
▁немец	-10.4424
▁һирәк	-10.4429
▁солист	-10.443
глас	-10.443
▁Антон	-10.4433
гл	-10.4435
▁йыры	-10.4437
▁ҡушылдығы	-10.4437
акушерлыҡ	-10.4438
▁Основано	-10.4439
▁возрасте	-10.4439
һегеҙ	-10.4439
▁һине	-10.4439
▁операция	-10.444
▁уҡытыусы	-10.444
▁старшина	-10.4443
знач	-10.4444
▁ҡыҙыҡһыныу	-10.4446
▁производств	-10.4446
▁бол	-10.4447
▁экологии	-10.4448
руб	-10.4451
▁пассажирҙар	-10.4452
▁представлен	-10.4457
▁продукцияһы	-10.4459
▁Пред	-10.4462
ИС	-10.4463
▁банкы	-10.4468
▁Тем	-10.447
▁лес	-10.4471
▁спортсы	-10.4472
▁ремонтлау	-10.4472
▁хәлдә	-10.4472
▁делегации	-10.4477
▁тематик	-10.4478
▁объединения	-10.4479
тся	-10.448
▁1956	-10.448
▁Че	-10.448
▁тигеҙ	-10.4481
▁1967	-10.4481
▁йәйге	-10.4482
▁закондар	-10.4483
▁оҙонлоғо	-10.4483
лған	-10.4485
▁күр	-10.4488
НО	-10.4488
▁Почет	-10.4488
▁күреү	-10.4488
▁Сам	-10.4492
43	-10.4492
▁танылған	-10.4493
▁куда	-10.4495
▁1976	-10.4496
ением	-10.4496
аға	-10.4497
чив	-10.4499
▁служил	-10.45
▁мосолмандары	-10.45
▁Рим	-10.4502
▁минус	-10.4505
86	-10.4506
▁неделе	-10.4509
ата	-10.451
▁күрһәтелә	-10.4513
истов	-10.4514
▁главе	-10.4516
92	-10.4516
▁выступил	-10.4517
орож	-10.4519
▁готовы	-10.4523
▁Генераль	-10.4524
N	-10.4526
стер	-10.4527
ОЛ	-10.4529
▁рассказала	-10.4529
▁башҡара	-10.4529
▁ак	-10.4533
▁грант	-10.4535
▁башы	-10.4537
▁образование	-10.4538
КО	-10.4538
▁инвестиций	-10.4539
ьян	-10.4542
дж	-10.4544
▁созданы	-10.4547
▁ғаиләләр	-10.4548
суд	-10.4549
▁пород	-10.4549
▁жанр	-10.4553
▁ниже	-10.4553
▁яуыуы	-10.4562
▁выбор	-10.4567
▁принцип	-10.457
▁шести	-10.4571
▁бирелде	-10.4571
▁худ	-10.4571
лоҡ	-10.4572
▁тәжрибәһе	-10.4574
▁заводе	-10.4574
▁сети	-10.4575
▁маҡсатлы	-10.4575
▁капитал	-10.4576
▁основан	-10.4578
▁яҡлы	-10.4581
▁киҫкен	-10.4586
▁выход	-10.4586
▁күсереү	-10.4586
▁цикл	-10.4589
▁Роман	-10.4596
▁хозяйств	-10.46
▁планируют	-10.4614
цию	-10.4615
▁крайы	-10.4616
▁Йылайыр	-10.4616
▁ҡағыҙ	-10.4622
▁иртә	-10.4622
Республика	-10.4625
▁Ас	-10.4627
▁Социаль	-10.4631
▁аҫаба	-10.4633
▁благодаря	-10.4633
▁бөтөрөү	-10.4633
▁блок	-10.4634
▁предложения	-10.4637
▁тамашасылар	-10.4638
ларына	-10.4646
ҙарға	-10.4648
▁тыныс	-10.4649
▁йәшәүселәр	-10.4657
▁результат	-10.4659
▁күбеһе	-10.4661
тәге	-10.4663
Ағиҙел	-10.4674
ЕТ	-10.4674
▁реконструкция	-10.4675
▁формы	-10.4675
▁деят	-10.4676
▁игры	-10.4679
▁районынан	-10.468
▁эксплуатацию	-10.4681
▁инструмент	-10.4681
лыҡты	-10.4682
▁журналистар	-10.4683
▁1968	-10.4684
▁голов	-10.4686
▁цель	-10.4687
▁һары	-10.4688
▁лесных	-10.4692
рҙа	-10.4692
▁меж	-10.4695
82	-10.4695
▁Артабан	-10.4697
▁балалары	-10.4697
▁международных	-10.4698
▁тире	-10.4698
▁кантона	-10.4701
▁халыҡҡа	-10.4704
▁самым	-10.4711
▁слов	-10.4714
▁(1998)	-10.4715
▁площадь	-10.4722
Ар	-10.4723
▁Светлана	-10.4725
▁производству	-10.4727
▁возможно	-10.4727
▁тергеҙеү	-10.4728
ләрҙе	-10.4731
ологик	-10.4734
▁приходится	-10.4735
▁сығарыла	-10.4739
ений	-10.474
овна	-10.474
▁үҙҙәре	-10.4742
үрә	-10.4745
оже	-10.4747
ары	-10.4752
кина	-10.4756
▁ҡатлы	-10.4756
▁первых	-10.4756
▁спортсмен	-10.4756
71	-10.4756
▁народный	-10.4757
▁аҫты	-10.4758
▁брат	-10.4758
селек	-10.4759
▁проходил	-10.4765
кәй	-10.4765
▁сығара	-10.4765
▁презентация	-10.4766
▁сторону	-10.4771
сыл	-10.4771
▁общественно	-10.4773
▁инвестицион	-10.4774
▁авиа	-10.4775
▁матдәләр	-10.4775
-1	-10.4777
▁погода	-10.4778
▁1964	-10.478
▁лучше	-10.4781
▁ҡорал	-10.4781
▁Саҡмағош	-10.4785
Ра	-10.4786
▁волн	-10.4789
▁помощью	-10.4791
▁градусҡа	-10.4793
▁диңгеҙ	-10.4794
▁цели	-10.4794
еев	-10.4795
▁затем	-10.4798
▁кейем	-10.4799
евич	-10.4802
▁(2000)	-10.4805
▁72	-10.4807
▁задач	-10.4807
▁төшкән	-10.4809
алась	-10.4809
▁формаһында	-10.4809
▁тәрбиәләү	-10.481
▁возраст	-10.4811
▁члены	-10.4811
▁призыв	-10.4811
▁обратил	-10.4812
▁квартал	-10.4816
al	-10.4817
▁осоро	-10.482
▁Хәйбулла	-10.4823
ттар	-10.4829
▁ман	-10.4836
▁быға	-10.4836
▁див	-10.484
▁удостоен	-10.4842
▁Ст	-10.4844
▁категория	-10.4846
бек	-10.4849
▁социального	-10.4851
▁аэропорт	-10.4853
▁Ахмет	-10.4855
ханов	-10.4855
▁Рас	-10.4856
нести	-10.4857
▁өҫкө	-10.4857
▁наград	-10.4858
▁избран	-10.4858
74	-10.4859
▁сараһы	-10.4862
спорт	-10.4864
▁Ислам	-10.4872
▁матери	-10.4872
өл	-10.4873
▁медицинских	-10.4873
▁самоуправления	-10.4873
▁Леонид	-10.4873
▁льгот	-10.4876
крат	-10.4879
▁той	-10.4884
ғыр	-10.4885
▁образовательных	-10.4889
▁традиции	-10.4891
08	-10.4892
01	-10.4895
нин	-10.4898
▁геол	-10.4899
▁9-	-10.4902
▁халҡын	-10.4903
▁большое	-10.4905
▁баҡыр	-10.4906
▁дал	-10.4907
▁ҡояш	-10.4907
жу	-10.4908
▁63	-10.4908
▁булһын	-10.4909
▁Азия	-10.4911
▁конференцияһы	-10.4913
ими	-10.4914
дор	-10.4914
▁милләт	-10.4919
▁Эти	-10.492
▁объём	-10.4922
▁практически	-10.4922
▁теләгән	-10.4923
▁64	-10.4923
▁действия	-10.4924
онов	-10.4926
▁ректор	-10.4927
▁качество	-10.4928
стью	-10.4928
▁гала	-10.4929
тәрҙә	-10.4929
▁аппарат	-10.4931
▁дер	-10.4933
▁һәйкәл	-10.4935
▁емеш	-10.494
зар	-10.4942
▁желез	-10.4942
▁документов	-10.4951
▁күптән	-10.4954
▁ЖКХ	-10.4954
▁мероприятие	-10.4954
69	-10.4954
▁беҙҙә	-10.4956
▁родился	-10.4956
▁1974	-10.4957
▁приказ	-10.4959
Ша	-10.4961
▁выходные	-10.4964
▁управление	-10.4968
ьев	-10.4968
▁Лилиә	-10.497
▁отдельных	-10.497
▁Предприятие	-10.497
▁оперы	-10.4971
▁яҙған	-10.4973
▁Тор	-10.4973
▁взял	-10.4974
▁св	-10.4976
▁культуре	-10.4976
▁табиптар	-10.4978
нет	-10.498
▁залында	-10.4983
▁Ҡайһы	-10.4987
▁Бал	-10.4989
▁июль	-10.4991
▁эшмәкәрҙәре	-10.4992
ымды	-10.4994
72	-10.4995
61	-10.4997
▁уҡытыусылары	-10.4999
▁Па	-10.5006
▁окт	-10.5008
стор	-10.5008
▁уртаһында	-10.5009
▁файҙалы	-10.5013
▁федерацияһы	-10.5019
▁инем	-10.5024
▁членов	-10.5025
▁балл	-10.5026
▁күләмдә	-10.5029
▁мо	-10.5031
▁сборной	-10.5032
▁быны	-10.5032
▁тәғәйенләнгән	-10.5036
▁Муртаза	-10.5037
▁көй	-10.5039
▁асыҡланған	-10.5043
▁Ян	-10.5043
▁юж	-10.5046
инский	-10.505
▁сердце	-10.5052
пал	-10.5058
▁партий	-10.506
▁информацию	-10.506
дей	-10.5062
▁кантоны	-10.5063
▁ниәтләй	-10.5066
план	-10.5066
▁айлыҡ	-10.5066
▁Ҡырым	-10.5068
пром	-10.507
▁сиркәү	-10.5071
еду	-10.5072
▁1981	-10.5072
▁объекттар	-10.5072
▁занимает	-10.5073
▁ҡалаларында	-10.5074
▁трав	-10.5076
h	-10.5077
▁писатель	-10.5085
▁аңлатма	-10.5086
▁Би	-10.5086
приток	-10.5086
▁звание	-10.5086
▁тотош	-10.5087
▁ҡыш	-10.5088
▁1957	-10.5089
Аҡ	-10.509
вел	-10.5092
▁организм	-10.5095
▁фермер	-10.5096
▁особо	-10.5096
▁кв	-10.5096
▁состоянии	-10.5102
▁развитии	-10.5104
рек	-10.511
▁губернаһының	-10.5111
вит	-10.5111
рған	-10.5117
▁дополнительно	-10.5117
▁Старостин	-10.5118
▁ярай	-10.5119
▁Республиканский	-10.512
зор	-10.5122
▁йәшкә	-10.5127
ИЯ	-10.5128
▁атаһы	-10.5131
дум	-10.5132
▁инфраструктура	-10.5135
▁йәһәтенән	-10.5135
▁дүртенсе	-10.5135
▁подпис	-10.5135
▁хеҙмәтенең	-10.5136
службы	-10.5141
▁бина	-10.5141
▁открытия	-10.5141
▁века	-10.5143
ланыу	-10.5143
▁тантаналы	-10.5145
2,	-10.5154
▁хаҡын	-10.5154
▁Сочи	-10.5156
▁лаб	-10.5161
▁база	-10.5165
вост	-10.5166
пере	-10.5168
▁агросәнәғәт	-10.5169
альная	-10.5171
пек	-10.5171
▁1961	-10.5171
Ко	-10.5172
▁мат	-10.5172
▁IV	-10.5173
▁коллективтары	-10.5174
▁сифатлы	-10.5177
▁зап	-10.5178
ацию	-10.5178
▁Нас	-10.5179
▁движение	-10.5187
▁месяца	-10.5188
▁1962	-10.5189
уф	-10.5189
▁свобод	-10.5193
▁факультеты	-10.5194
▁күк	-10.5195
▁больницы	-10.5198
▁7-	-10.5202
▁водо	-10.5202
▁1971	-10.5205
▁килгәндә	-10.5208
▁эшләне	-10.5213
▁лица	-10.5213
▁(10	-10.5213
▁класса	-10.5213
▁Дәүләкән	-10.5214
▁которую	-10.5218
▁йәрминкәһе	-10.5219
▁академии	-10.5219
▁1985	-10.5221
▁равно	-10.5225
▁потенциал	-10.5228
ено	-10.523
▁проблемалары	-10.523
▁Донъя	-10.5232
▁Стәрлетамаҡта	-10.5232
▁детьми	-10.5235
вели	-10.5235
▁государственном	-10.5239
▁голову	-10.5242
▁әйтә	-10.5243
▁эҙләү	-10.5245
▁зона	-10.5246
▁диплом	-10.525
тәрен	-10.5252
▁строительству	-10.5252
▁төбәктәре	-10.5258
▁вес	-10.5259
▁кер	-10.526
▁миллиона	-10.526
en	-10.5267
▁Ах	-10.5267
▁культуралары	-10.5268
▁такого	-10.5268
▁басс	-10.5269
▁Пенсия	-10.5269
▁добавил	-10.5269
▁сектор	-10.527
▁Чу	-10.527
▁урынлаштырыу	-10.5271
▁ҡышҡы	-10.5271
▁бейеүҙәре	-10.5279
▁недо	-10.528
▁тапшырыла	-10.5284
▁тамамлана	-10.5284
▁хеҙмәткәр	-10.5286
Кар	-10.5286
дәрҙең	-10.5287
▁1973	-10.5288
▁агро	-10.5291
▁апр	-10.5293
▁үт	-10.5294
▁уҡый	-10.5294
ӘН	-10.5295
▁адресу	-10.5298
▁талант	-10.5299
ители	-10.5301
овского	-10.5301
▁тема	-10.5303
▁Владимира	-10.5305
▁вол	-10.5306
▁двор	-10.5311
фон	-10.5312
щик	-10.5313
▁кара	-10.5315
нер	-10.5316
▁күрҙе	-10.5317
▁Белебеевского	-10.5319
▁планы	-10.5321
ера	-10.5321
Россия	-10.5322
▁кешене	-10.5322
▁мире	-10.5323
мор	-10.5325
▁поездки	-10.5325
▁халҡына	-10.5326
▁групп	-10.5326
▁ныне	-10.5328
▁һоро	-10.5332
▁достижения	-10.5333
▁итеүҙе	-10.5336
▁төҫтә	-10.5337
▁женщины	-10.5343
бег	-10.5343
▁Шунан	-10.5343
▁минераль	-10.5345
▁Бел	-10.5348
▁обществ	-10.535
▁ҡайтып	-10.5354
▁Герой	-10.5357
▁зарегистрирован	-10.5358
▁йүнәлештәре	-10.5359
63	-10.5359
▁Емеш	-10.5359
▁масс	-10.536
▁целью	-10.5361
морф	-10.5361
▁сум	-10.5363
уфимской	-10.5365
▁рыб	-10.5365
▁лит	-10.5365
▁эшендә	-10.5365
-10	-10.537
▁Ведомство	-10.537
жит	-10.5371
▁карт	-10.5373
▁эт	-10.5379
әҙ	-10.5383
▁взаимодействия	-10.5387
▁вафат	-10.5387
▁тәүлек	-10.539
l	-10.539
▁норма	-10.5392
ОС	-10.5393
▁пленар	-10.5393
ТИ	-10.5402
▁нәшер	-10.5404
▁яғынан	-10.5406
▁туй	-10.5406
▁килем	-10.5412
▁дл	-10.5413
▁ысулы	-10.5415
▁апай	-10.5416
▁индерә	-10.5419
▁(5	-10.542
▁общественного	-10.5421
щен	-10.5423
▁110	-10.5423
▁артыуы	-10.5424
▁распространены	-10.5424
▁ҡапыл	-10.5426
▁созданию	-10.5427
▁созда	-10.5427
сыларҙың	-10.5429
▁сообщало	-10.5431
▁рейс	-10.5432
▁Кем	-10.5433
▁шарттарҙа	-10.5434
▁отец	-10.5434
Ай	-10.5435
олит	-10.5437
▁армия	-10.5438
▁показатель	-10.5438
▁богат	-10.5442
▁министерств	-10.5443
▁семи	-10.5443
▁өйәҙендә	-10.5447
▁былтыр	-10.5452
▁Федерацияның	-10.5452
бул	-10.5454
ТА	-10.5456
▁получила	-10.5456
▁коп	-10.5457
▁произведения	-10.5458
▁оператор	-10.5465
▁яҙыу	-10.5467
гәйне	-10.5474
▁әҙерләй	-10.5474
рей	-10.5475
▁үҫешә	-10.5476
▁орлоҡ	-10.5476
▁хәлде	-10.5481
лок	-10.5481
▁шарттары	-10.5485
▁Ҡаҙағстан	-10.5487
—10	-10.5489
.11.19	-10.549
реү	-10.549
▁выпуск	-10.5493
▁сифатында	-10.5497
▁мәғлүмәттәренә	-10.55
▁коллективов	-10.5501
▁получит	-10.5504
леккә	-10.5504
өн	-10.5506
ҙәренсә	-10.5506
▁өҫтөнлөклө	-10.5507
▁уң	-10.5508
▁планлаштырылған	-10.5508
генеральный	-10.5511
▁бейеклеге	-10.5513
▁ха	-10.5515
▁классик	-10.5516
ИТ	-10.5517
▁сират	-10.5524
▁использования	-10.5524
▁булдырыла	-10.5524
▁ветерандары	-10.5525
▁торговли	-10.5527
Мисс	-10.5531
▁Италия	-10.5535
▁сторон	-10.5535
▁законопроект	-10.5541
▁тәүлектә	-10.5542
▁Центра	-10.5542
▁тығыҙ	-10.5543
▁связана	-10.5547
около	-10.555
центр	-10.5552
▁российской	-10.5554
кур	-10.5554
▁сцене	-10.5555
▁восемь	-10.5559
▁Известно	-10.5559
▁Мустая	-10.5559
▁знаю	-10.5565
[	-10.5565
▁текст	-10.557
on	-10.5574
▁идаралығының	-10.5574
арь	-10.5575
▁Вячеслав	-10.5576
▁одну	-10.5576
афҡа	-10.5577
исты	-10.5578
тап	-10.5585
▁яңғыҙ	-10.5589
эй	-10.5591
▁некоторых	-10.5593
▁мечеть	-10.5594
очного	-10.5594
▁һымаҡтар	-10.5596
▁окружающе	-10.5597
фил	-10.5597
лат	-10.5602
▁Эльвира	-10.5603
▁обычно	-10.5603
▁Әхмәт	-10.5604
эт	-10.5605
бур	-10.5607
▁состояние	-10.5611
Ре	-10.5611
▁Стерлитамаке	-10.5611
▁январе	-10.5611
▁әйберҙәр	-10.5612
иев	-10.5612
манов	-10.5617
▁силу	-10.5621
▁специалист	-10.5627
▁1944	-10.5632
▁теркәү	-10.5634
▁күпер	-10.5634
өй	-10.5638
▁Төркиә	-10.5639
▁саҡыра	-10.5645
▁категории	-10.5646
▁мм	-10.5646
▁Риф	-10.5648
▁школу	-10.5649
ключ	-10.565
мент	-10.5651
▁үлән	-10.5656
▁ҡыл	-10.5659
рыв	-10.566
ете	-10.5661
цвет	-10.5662
▁карьер	-10.5663
▁кәметеү	-10.5663
ar	-10.5663
▁книгу	-10.5664
▁стр	-10.5666
▁1984	-10.5667
▁Кто	-10.5668
▁программаһында	-10.567
▁стена	-10.5671
ологии	-10.5672
▁местных	-10.5674
▁Хо	-10.5675
▁Кисә	-10.5676
▁отметила	-10.5678
▁Этот	-10.568
▁участии	-10.5681
▁нефте	-10.5681
▁малсылыҡ	-10.5682
лаштырылған	-10.5686
▁молод	-10.569
▁примет	-10.5691
пред	-10.5694
▁молодежно	-10.5694
истик	-10.5695
▁беҙҙе	-10.5696
73	-10.5697
▁единиц	-10.5698
▁баҫып	-10.5699
▁пилот	-10.5699
▁(2003)	-10.5699
итов	-10.5701
▁әсәһе	-10.5703
▁самые	-10.571
▁круг	-10.5712
▁Фонда	-10.5718
▁йәшен	-10.5719
нем	-10.5721
▁ряда	-10.5732
▁факультет	-10.5733
▁ас	-10.5733
▁Альберт	-10.5733
▁женщина	-10.5733
▁числа	-10.5734
▁заводында	-10.5735
▁1982	-10.5737
▁хоҡуғы	-10.5737
әһе	-10.5737
▁тара	-10.5741
ительно	-10.5741
▁чемпионы	-10.5744
▁һал	-10.5747
▁РАН	-10.5753
▁комбинат	-10.5755
евых	-10.5758
▁часто	-10.5759
▁үҙенә	-10.5762
▁ғаиләләргә	-10.5763
▁үҙенсәлектәре	-10.5768
▁превыша	-10.5769
▁порядок	-10.5769
▁драмы	-10.5769
▁втором	-10.577
▁Красно	-10.5771
▁1977	-10.5773
▁ред	-10.5775
▁етәкселек	-10.5775
.10.1	-10.5777
▁сорт	-10.5777
▁случаев	-10.5778
▁Илеш	-10.578
▁цех	-10.5784
люб	-10.5785
▁башкирами	-10.5785
▁ғалимдар	-10.5786
▁яҡшыртыу	-10.5786
▁үтеп	-10.5788
▁специализирован	-10.579
усы	-10.5794
▁(4	-10.5794
плат	-10.5795
▁араһындағы	-10.5795
▁главного	-10.5797
▁договор	-10.58
▁АССР	-10.5804
▁мастеры	-10.5804
▁драматург	-10.5805
▁1969	-10.5807
▁ПО	-10.5812
▁минималь	-10.5814
▁ними	-10.5814
ография	-10.5814
▁алма	-10.5815
▁переход	-10.5815
рак	-10.5816
▁институтының	-10.5817
печ	-10.5819
▁намерен	-10.5819
▁такое	-10.5821
▁прежде	-10.5822
▁поручил	-10.5822
лист	-10.5822
▁һаман	-10.5822
▁класы	-10.5823
▁вазифаһына	-10.5823
▁уфимского	-10.5824
▁һис	-10.5826
▁рассказали	-10.5827
вать	-10.5827
▁тотоп	-10.5828
▁Федерация	-10.5829
ическое	-10.5829
▁Хәрби	-10.5829
▁принимаются	-10.583
▁учебных	-10.5832
%),	-10.5833
▁бары	-10.5836
▁Ғәли	-10.5837
▁янына	-10.5837
▁ышанам	-10.5837
▁яғыулыҡ	-10.584
▁республиканский	-10.584
▁сығарылған	-10.5841
▁мөхәррире	-10.5842
▁ғаиләһе	-10.5845
▁йыйылмаһы	-10.5846
шёл	-10.5847
топ	-10.585
▁рек	-10.5852
▁файҙаланыла	-10.5855
▁сүп	-10.5858
▁былай	-10.5858
▁башҡорттарҙың	-10.5858
▁учителей	-10.5858
▁Один	-10.5862
низ	-10.5863
▁заводтары	-10.5866
▁особ	-10.5867
▁бронз	-10.5868
▁документаль	-10.5874
▁приглашают	-10.5875
▁Концерт	-10.5875
▁1979	-10.5878
бас	-10.588
▁Бүздәк	-10.5883
▁языках	-10.5883
▁йыйып	-10.5893
-3	-10.5894
▁индерҙе	-10.5894
▁сквер	-10.5894
▁йыллығы	-10.5897
ноң	-10.5899
▁67	-10.5903
▁атай	-10.5903
▁вос	-10.5903
▁иткәнсә	-10.5904
▁командир	-10.5905
▁Валерий	-10.5911
▁йомортҡа	-10.5911
▁капитан	-10.5911
▁Илшат	-10.5912
▁йәһәттән	-10.5912
▁Таким	-10.5912
▁сеймал	-10.5913
▁ҡарамаған	-10.5914
▁шарттарын	-10.5915
▁Первый	-10.5916
▁Ана	-10.5916
лён	-10.5919
▁горно	-10.592
▁(1992)	-10.5921
▁принимают	-10.5923
▁Комитета	-10.5923
▁һанлы	-10.5926
▁Матиуш	-10.5929
▁130	-10.5929
▁татарҙар	-10.5931
▁ҡоралдары	-10.5932
▁одном	-10.5934
▁детский	-10.5936
▁роста	-10.5938
▁ветеран	-10.5938
▁уж	-10.5942
▁поставлен	-10.5944
▁сифат	-10.5944
▁һаҡ	-10.5944
▁йөрөгән	-10.5944
▁саҡырыу	-10.5946
▁добро	-10.5947
▁администрация	-10.5947
▁мәлдә	-10.5952
▁депутаттар	-10.5955
▁Тағы	-10.5956
▁Ос	-10.5959
▁акад	-10.5959
▁буду	-10.596
ере	-10.5961
пел	-10.5963
▁Кур	-10.5964
▁йылылыҡ	-10.5965
▁лучшие	-10.5965
▁яңыртыу	-10.5965
▁церемонии	-10.5967
▁Яҙыусылар	-10.5968
▁баҫым	-10.5968
▁кешеләре	-10.5968
▁сами	-10.5971
▁дальнейше	-10.5973
▁пед	-10.5975
дон	-10.5978
▁тест	-10.598
▁мөлкәт	-10.5983
is	-10.5983
▁ярамай	-10.5987
▁гимназия	-10.5988
▁1983	-10.5988
▁прост	-10.5992
▁кешеләргә	-10.5996
▁закона	-10.5999
▁обязанности	-10.6002
▁пакет	-10.6002
▁тренеры	-10.6003
▁мөхит	-10.6003
ину	-10.6005
▁проведении	-10.6006
▁Дини	-10.6006
▁спортсменов	-10.6007
▁бул	-10.6007
▁ирекле	-10.601
еүе	-10.6015
▁Мат	-10.6015
▁йәшәүсе	-10.6015
▁россиян	-10.6019
▁берләшмәләр	-10.602
▁яны	-10.6021
▁технологик	-10.6026
бежал	-10.6026
▁другим	-10.6026
▁выразил	-10.6027
▁нац	-10.6028
▁проекттарын	-10.6029
▁товаров	-10.6032
▁семье	-10.6036
▁ПФО	-10.6038
гәс	-10.6038
зу	-10.6039
▁сығарҙы	-10.6052
▁заместителя	-10.6056
▁обеспечить	-10.6056
▁проходят	-10.6058
▁ведомств	-10.6059
▁ҡал	-10.6067
▁140	-10.6071
емых	-10.6072
▁домой	-10.6073
▁етештерелгән	-10.6074
▁удалось	-10.6074
▁Геройы	-10.6077
Был	-10.6081
хол	-10.6082
лё	-10.6086
▁Краснодар	-10.6086
▁ҡайтты	-10.6086
▁губерна	-10.609
ющий	-10.6091
▁кесе	-10.6096
▁(1991)	-10.6097
▁ҡыҙҙар	-10.6097
▁гео	-10.6103
▁прошло	-10.6103
▁обсудили	-10.6104
▁сотрудники	-10.6104
рок	-10.6104
▁Пере	-10.6104
▁Май	-10.6105
▁Правительстве	-10.6111
▁аҡсалата	-10.6111
▁Журналистар	-10.6111
▁призёры	-10.6112
▁ум	-10.6114
▁поступило	-10.6117
▁ятҡан	-10.6118
▁саҡырҙы	-10.6122
▁лаборатория	-10.6123
▁Арт	-10.6124
▁Казани	-10.6124
▁көнсығыш	-10.6128
▁форумында	-10.6129
▁предстоит	-10.6129
▁фатирлы	-10.613
▁которым	-10.6132
ТО	-10.6133
крас	-10.6134
▁цирк	-10.6134
▁станцияһы	-10.6136
▁йәше	-10.614
▁Кил	-10.6141
▁физическо	-10.6142
▁һөйләү	-10.6144
аф	-10.6144
▁старик	-10.6146
▁биҙәү	-10.6147
▁килешеүгә	-10.6147
рылған	-10.6149
▁линии	-10.6149
▁артыҡ	-10.6151
p	-10.6155
▁войск	-10.6159
▁хозяйство	-10.6161
ҙәге	-10.6164
▁перспективы	-10.6164
вшись	-10.6165
▁ҡалалары	-10.6173
▁резерв	-10.6174
▁Иль	-10.6175
▁уҡырға	-10.6179
▁ҡуйы	-10.6181
▁икмәк	-10.6184
▁рода	-10.6184
▁найти	-10.6185
▁детские	-10.6187
▁өҫтөнлөк	-10.6189
Башҡортостандың	-10.6191
▁йүнәлештәр	-10.6191
▁осраҡтары	-10.6196
▁яй	-10.6197
Ал	-10.6202
▁сильно	-10.6205
▁68	-10.6212
▁Ком	-10.6214
▁события	-10.6221
▁йөрәге	-10.6221
500	-10.6221
Торатау	-10.6221
▁1958	-10.6225
▁спас	-10.6227
▁күн	-10.6234
▁написал	-10.6235
▁Златоуст	-10.6236
▁партнер	-10.6236
▁болот	-10.6238
риф	-10.6238
▁көнөн	-10.6239
▁Камил	-10.6242
уры	-10.6245
▁определен	-10.6245
▁расп	-10.6245
▁ҡат	-10.6246
▁берҙән	-10.6251
тарынан	-10.6252
▁сотрудников	-10.6252
▁сертификат	-10.6254
ора	-10.6254
▁гвардия	-10.6258
▁США	-10.6258
▁взгляд	-10.6258
▁этапа	-10.6262
▁отца	-10.6265
▁стандарт	-10.6266
▁стрел	-10.6267
▁шир	-10.6268
▁крәҫтиән	-10.6268
▁разговор	-10.6269
кт	-10.6271
▁Радик	-10.6273
▁сент	-10.6274
▁километр	-10.6274
▁строит	-10.6276
▁девять	-10.6277
▁посев	-10.628
▁органик	-10.6285
▁барыһын	-10.6285
▁килтереү	-10.6286
▁паркы	-10.6289
▁йәштәре	-10.6289
▁66	-10.6294
▁охраны	-10.6294
▁камиллаштырыу	-10.6295
өп	-10.6295
▁заявок	-10.6295
▁кимәлендә	-10.6296
▁һүҙҙәр	-10.6297
▁самого	-10.6299
▁своими	-10.6303
▁Организаторы	-10.6305
▁ист	-10.6309
Тамыр	-10.631
▁слово	-10.631
▁ғаиләһенә	-10.6312
һө	-10.6313
▁59	-10.6314
▁накануне	-10.6314
▁эҫе	-10.6314
▁выступили	-10.6317
▁яз	-10.632
▁Министр	-10.6324
▁Сәнәғәт	-10.6329
▁технологияһы	-10.633
▁яғы	-10.6331
алары	-10.6332
▁үҫкән	-10.6333
▁закуп	-10.6335
▁лесо	-10.6337
▁перевод	-10.6342
▁йорттар	-10.6342
тери	-10.6344
▁төбәктәр	-10.6346
селәре	-10.6346
▁табыш	-10.6351
▁юлдар	-10.6353
▁күпселек	-10.6356
▁начальника	-10.6357
чка	-10.6361
▁научный	-10.6361
▁факт	-10.6361
▁боҙоу	-10.6362
▁Основ	-10.6364
▁Осн	-10.6365
При	-10.6365
ицы	-10.6366
▁Нуғай	-10.637
▁йылғаһы	-10.6377
▁соревнования	-10.6384
▁училища	-10.6385
шла	-10.6386
▁предприятиях	-10.6386
%,	-10.6387
ять	-10.6389
▁тай	-10.6389
▁Марсель	-10.6389
▁теләге	-10.639
▁голосования	-10.639
▁булдырырға	-10.6392
▁инфраструктуры	-10.6392
АК	-10.6393
▁торгово	-10.6396
дет	-10.64
клон	-10.6401
▁шоу	-10.6403
▁төш	-10.6403
вет	-10.6404
▁Рустам	-10.6408
▁компонент	-10.6409
▁конкурста	-10.6414
ОК	-10.6417
▁үҙәктәре	-10.6417
▁Гу	-10.6417
▁Всероссийско	-10.6418
▁техникаһы	-10.6419
АС	-10.6421
Йәш	-10.6422
▁фельдшерско	-10.6423
▁ҡәҙәр	-10.6427
▁көнүҙәк	-10.6427
▁обучение	-10.6428
конференции	-10.6429
лон	-10.643
▁малы	-10.6431
▁полиция	-10.6433
▁башкирские	-10.6437
ынса	-10.6441
▁проводить	-10.6445
▁заместителем	-10.6445
анов	-10.6447
ылып	-10.6447
граф	-10.6451
ага	-10.6451
▁транспорты	-10.6453
▁полимер	-10.6455
▁середине	-10.6457
▁Тулы	-10.6457
▁техн	-10.6458
▁структура	-10.646
▁ташыу	-10.6462
▁мөнәсәбәттәр	-10.6464
Агидель	-10.6464
луч	-10.6467
жил	-10.6468
▁кешеләрҙе	-10.647
телей	-10.6472
▁наша	-10.6473
▁хлор	-10.6476
▁ебәреү	-10.6479
▁моя	-10.6479
▁ҡыр	-10.6485
▁ресурсов	-10.6485
▁решил	-10.6488
дол	-10.6488
▁тому	-10.6488
ныне	-10.6492
▁смотр	-10.6493
▁Сарала	-10.6494
▁көндәр	-10.6494
▁китаптар	-10.6499
мәк	-10.6502
▁дальше	-10.6502
▁изделия	-10.6502
▁актёр	-10.6503
▁Кушнаренко	-10.6504
▁леса	-10.6505
▁белдереү	-10.6509
▁1940	-10.651
▁тар	-10.651
▁дата	-10.6513
лес	-10.6516
▁рот	-10.6518
▁ҡасан	-10.6519
▁крупнейши	-10.6521
▁выступления	-10.6522
▁география	-10.6522
▁дошман	-10.6523
▁(2004)	-10.6523
▁(1999)	-10.6525
▁конгресс	-10.6525
▁белгесе	-10.6525
▁легендар	-10.6528
9.19	-10.6531
ТОВ	-10.6532
▁руд	-10.6532
▁обеспечение	-10.6532
▁иҫке	-10.6534
икеһе	-10.6535
ҙарҙа	-10.6537
▁йәғни	-10.654
▁Иҫегеҙ	-10.6541
▁начало	-10.6541
▁Лилия	-10.6541
▁бюджеты	-10.6542
▁350	-10.6543
▁Аль	-10.6544
▁таҙа	-10.6544
▁1934	-10.6546
▁Берҙәм	-10.6547
дала	-10.6549
вай	-10.6549
▁обязательно	-10.655
▁хлеб	-10.6552
▁син	-10.6556
▁вакцина	-10.6557
▁(2001)	-10.6558
▁дружбы	-10.656
▁баҫҡыс	-10.656
▁предмет	-10.6562
▁контрол	-10.6562
зон	-10.6568
көнсығыш	-10.657
▁үтеү	-10.6572
▁киңлеге	-10.6573
▁(2006)	-10.6574
дия	-10.6576
▁Сер	-10.6577
▁оҡшаш	-10.6579
▁Троицк	-10.6582
▁һалдат	-10.6583
▁офицер	-10.6593
стой	-10.6593
▁округе	-10.6593
реж	-10.6597
дут	-10.6597
▁туғандары	-10.6597
▁ҡыҫ	-10.6598
▁велосипед	-10.6598
▁Иванов	-10.66
НЫЕ	-10.66
▁ветераны	-10.6602
▁организаторы	-10.6604
шан	-10.661
▁Кубка	-10.6612
очки	-10.6612
▁айы	-10.6612
▁выполнен	-10.6614
▁күреп	-10.6619
▁мужчин	-10.6622
▁могли	-10.6623
ющего	-10.6624
руш	-10.6626
▁Күгәрсен	-10.6626
-2	-10.6626
▁съезд	-10.6627
етдинов	-10.6627
▁әҙерләгән	-10.6628
▁2017.	-10.6629
▁Финанс	-10.6632
▁северо	-10.6633
▁өҫтө	-10.6636
▁паспорт	-10.6637
▁башҡарыла	-10.6638
▁үҙем	-10.6639
▁фондының	-10.6639
информ	-10.6641
ющая	-10.6644
▁парка	-10.6644
рел	-10.6648
▁Челябинск	-10.6648
▁тяжело	-10.665
▁ярмарки	-10.6656
▁зерновых	-10.6656
▁товар	-10.6659
▁холод	-10.6659
▁говорил	-10.6663
йән	-10.6665
▁Татар	-10.6669
▁республику	-10.667
▁итер	-10.6672
▁продукцияһын	-10.6674
▁тикшерелә	-10.6674
▁КПСС	-10.6675
▁выставке	-10.6675
▁1,2	-10.6677
▁күрһәтергә	-10.6677
▁десяти	-10.6677
ерт	-10.6682
▁ғәмәлдә	-10.6683
▁готов	-10.6684
▁пластик	-10.6684
Бай	-10.6687
овская	-10.6688
▁һый	-10.6689
▁хайуандар	-10.6691
▁производственно	-10.6692
▁кар	-10.6692
▁заболеваний	-10.6694
▁сәбәпле	-10.6697
▁алдындағы	-10.6699
евые	-10.6706
ким	-10.6706
▁мальчик	-10.6709
▁икәнен	-10.6714
▁творческих	-10.6714
▁информация	-10.6716
шим	-10.6717
▁Рәйесе	-10.6718
рап	-10.6719
фар	-10.6719
треб	-10.672
▁июле	-10.6721
▁учителя	-10.6721
▁открыто	-10.6724
▁Ти	-10.6724
мәү	-10.6725
▁цены	-10.6725
▁вәкил	-10.6727
▁Вәлиди	-10.6733
вест	-10.6734
▁Назаров	-10.6736
▁назараты	-10.6738
▁өйрәнә	-10.6741
▁Кр	-10.6744
▁рухи	-10.6747
▁Мне	-10.675
▁эшләйәсәк	-10.6753
▁Качкаев	-10.6753
▁айырылып	-10.6753
▁силы	-10.6756
дра	-10.6756
дь	-10.6757
▁граждандарҙың	-10.6757
▁сборник	-10.6758
әш	-10.6761
▁иҫтәлекле	-10.6761
шар	-10.6762
▁баҫты	-10.6762
▁ситтә	-10.6768
▁янындағы	-10.6768
▁фильма	-10.677
бал	-10.677
ash	-10.677
▁өйҙә	-10.6772
▁курултая	-10.6772
▁төшөрөлгән	-10.6772
▁оборот	-10.6773
тельно	-10.6773
▁базаһында	-10.6774
▁1937	-10.6778
яков	-10.6779
гляд	-10.6785
льд	-10.6785
▁Валиди	-10.6789
▁Гафури	-10.6789
▁яҙа	-10.679
▁ваҡиғалар	-10.679
▁рәттән	-10.6793
▁ведется	-10.6796
▁министрлығынан	-10.6806
▁дауаханаһы	-10.6807
рет	-10.6809
▁саф	-10.6811
▁здании	-10.6812
▁һалған	-10.6812
▁ҒТИ	-10.6813
▁осрашыуҙар	-10.6813
▁семьям	-10.6814
▁Им	-10.6814
▁һиҙ	-10.6816
▁Нам	-10.6817
▁русском	-10.6819
▁химияһы	-10.6828
▁спортсылар	-10.6828
▁Советтар	-10.6829
үл	-10.6831
▁годом	-10.6831
▁прямо	-10.6831
▁исследований	-10.6833
▁(1944)	-10.6836
▁вз	-10.6843
▁мәктәптәре	-10.6848
ял	-10.6848
нибудь	-10.6851
▁связей	-10.6853
▁янв	-10.6853
▁продукттары	-10.6856
▁какие	-10.6856
▁химии	-10.686
%.	-10.6863
▁вертолет	-10.6869
“	-10.6869
▁килешеүе	-10.6869
▁йоғонто	-10.687
▁жителям	-10.687
▁поколения	-10.6871
▁рынка	-10.6872
▁берәмек	-10.6873
▁вв	-10.6873
▁художник	-10.6873
▁контролдә	-10.6874
▁Үҙе	-10.6876
▁(1945)	-10.6877
▁основных	-10.6877
иц	-10.6878
нит	-10.6879
▁Участники	-10.6879
▁книга	-10.688
конференцияһында	-10.6882
▁Биш	-10.6887
▁центров	-10.6888
▁вуз	-10.6889
▁Матбуғат	-10.689
▁саҡырылыш	-10.689
▁природы	-10.6891
▁здания	-10.6891
▁детсад	-10.6891
▁яғына	-10.6892
▁идараһы	-10.6892
▁йәмәғәтселек	-10.6893
▁Фа	-10.6895
▁Хә	-10.6897
ҡҡ	-10.6897
булатов	-10.6899
▁йылдарында	-10.6899
уча	-10.6902
▁хеҙмәткә	-10.6902
▁гектаров	-10.6902
ыуын	-10.6903
час	-10.6905
слу	-10.6906
▁билдәһе	-10.6906
▁ғаризалар	-10.6907
▁йоҡла	-10.6909
▁Управление	-10.691
▁отд	-10.691
▁начнется	-10.6914
▁немного	-10.6914
▁проведен	-10.692
▁сығарған	-10.6924
▁Общественно	-10.6925
▁соревнований	-10.693
▁Ялалов	-10.693
конкурс	-10.6931
▁разработан	-10.6935
▁подход	-10.6936
▁знак	-10.6936
▁мәктәптәр	-10.6936
▁режиме	-10.6938
▁кластер	-10.6938
▁комплексын	-10.6942
▁Һыу	-10.6943
ларҙан	-10.6943
теү	-10.6944
▁мощн	-10.6949
▁көсө	-10.6949
▁Роберт	-10.695
▁Турции	-10.6951
▁водитель	-10.6951
▁шағиры	-10.6956
▁суммаһы	-10.6959
анс	-10.6963
▁символ	-10.6963
▁күсә	-10.6968
▁исемлегенә	-10.6968
Национального	-10.6969
▁табибы	-10.697
▁Франция	-10.6972
▁семья	-10.6972
▁ышаныс	-10.6972
▁тапҡан	-10.6973
▁мировой	-10.6976
▁Ҡатын	-10.6976
▁Ла	-10.6976
▁регион	-10.6977
▁лично	-10.6977
КОВ	-10.698
▁Вер	-10.6981
▁близ	-10.6985
▁проходить	-10.6985
▁службу	-10.6986
▁идея	-10.6987
▁ход	-10.6988
лама	-10.6991
▁(2005)	-10.6995
▁филиала	-10.6996
▁Иран	-10.7
▁собира	-10.7
▁аса	-10.7
ливо	-10.7005
▁полковник	-10.7008
▁небольшой	-10.701
▁понедельник	-10.701
▁разработке	-10.701
▁современное	-10.701
▁соответственно	-10.701
▁шарт	-10.7012
етдин	-10.7014
▁механизм	-10.7014
гранич	-10.7014
▁выборах	-10.7016
ыңды	-10.7018
▁давно	-10.7019
▁механик	-10.702
▁проводит	-10.7021
▁Өс	-10.7021
▁рух	-10.7023
ЛИ	-10.7024
▁вести	-10.7029
йыл	-10.703
▁людям	-10.703
▁ведущих	-10.703
▁флаг	-10.703
нар	-10.7031
▁Көнбайыш	-10.7033
▁принимать	-10.7033
▁территорияһы	-10.7039
тыҡ	-10.7039
тир	-10.704
нию	-10.7043
летняя	-10.7043
▁выплат	-10.7044
▁пищ	-10.7047
▁Айнур	-10.705
▁русский	-10.7051
▁үҫешкән	-10.7053
▁Ради	-10.7055
▁российского	-10.7055
▁еңеүселәр	-10.7056
▁инфекцияһы	-10.7058
▁ҡатыны	-10.7059
▁Түбәнге	-10.706
▁йәштән	-10.706
ҡтар	-10.7065
▁ана	-10.7066
лев	-10.7066
▁медиа	-10.7068
▁университете	-10.7068
▁говорится	-10.7069
▁нельзя	-10.707
▁показатели	-10.707
▁действует	-10.707
рид	-10.7072
▁фәндәре	-10.7073
▁Быға	-10.7073
▁роли	-10.7075
▁список	-10.7081
сур	-10.7081
▁либо	-10.7087
нять	-10.7089
транспорт	-10.7089
▁музыки	-10.709
▁сәй	-10.7091
▁соглашение	-10.7091
▁73	-10.7093
▁Бәләкәй	-10.7095
▁скота	-10.7096
▁Мар	-10.7097
ведения	-10.7098
уллина	-10.71
оген	-10.7102
хеҙмәткәрҙәренең	-10.7102
▁белмәй	-10.7104
▁әһәмиәт	-10.7106
,5%	-10.7106
▁виды	-10.7106
этаж	-10.7107
▁Ҡариҙел	-10.711
▁старший	-10.7111
▁известны	-10.7111
▁Белая	-10.7112
▁Нефтекамск	-10.7115
▁оборудование	-10.7117
▁военно	-10.7122
▁субботу	-10.7122
▁раҫланы	-10.7123
очно	-10.7124
▁избирательны	-10.7124
»)	-10.7125
▁построен	-10.7126
▁Новосибирск	-10.7126
▁(1980)	-10.7127
▁троллейбус	-10.7131
▁үтергә	-10.7131
озд	-10.7137
▁Иванович	-10.7137
▁Надо	-10.7137
▁нояб	-10.7141
▁сайты	-10.7149
▁данных	-10.7151
▁ЯСЙ	-10.7151
▁раҫланған	-10.7151
▁үткәрергә	-10.7151
▁церемония	-10.7152
▁изучению	-10.7152
▁серебр	-10.7152
овской	-10.7156
▁ҡаҙна	-10.7157
▁ултырған	-10.7158
▁(1971)	-10.7159
БР	-10.7162
ших	-10.7163
▁темаһы	-10.7168
өс	-10.7169
▁3,5	-10.7171
▁пятницу	-10.7171
▁память	-10.7171
▁почвы	-10.7171
▁финансирования	-10.7173
▁достиг	-10.7173
▁учреждениелар	-10.7174
▁Тә	-10.7178
ләште	-10.7179
һынан	-10.7181
▁заболевания	-10.7184
сәйәси	-10.7185
▁Ҙур	-10.7186
▁артистары	-10.7187
▁ҡиммәтле	-10.719
▁Гали	-10.7191
▁айырып	-10.7192
ируют	-10.7192
▁нужны	-10.7192
ирует	-10.7193
▁бөтөн	-10.7193
▁пояснил	-10.7199
▁ведомстве	-10.72
▁дәрестәре	-10.7201
▁ауыҙ	-10.7202
▁форме	-10.7204
▁өлкәһенең	-10.7207
бен	-10.7208
летие	-10.7212
▁природных	-10.7212
▁ҡуйылды	-10.7212
▁документы	-10.7213
▁баҙарында	-10.7214
▁баһалау	-10.7216
▁побед	-10.7217
▁ойоштороласаҡ	-10.7222
▁илдәре	-10.7226
лия	-10.7228
▁КА	-10.723
кү	-10.723
▁төшөрөү	-10.7233
пут	-10.7233
▁июне	-10.724
▁йырсы	-10.7241
▁плюс	-10.7243
▁исемлеге	-10.7244
▁секретарь	-10.7247
коль	-10.7247
▁Ғаилә	-10.725
▁поезд	-10.7251
▁прививка	-10.7253
▁йәшелсә	-10.7254
▁политике	-10.7254
▁уроженце	-10.7254
куль	-10.7255
▁ярҙамсы	-10.7256
▁склон	-10.7257
тип	-10.7257
чё	-10.726
▁Днем	-10.7261
▁факультета	-10.7262
▁продукт	-10.7263
▁скоро	-10.7263
▁адресы	-10.7264
▁N	-10.7265
әғ	-10.7269
▁связано	-10.727
▁күрше	-10.7271
▁половине	-10.7274
▁Ильяс	-10.7274
▁говорить	-10.7278
▁посад	-10.7279
дал	-10.7279
мак	-10.7279
ическую	-10.7281
рик	-10.7282
▁баҡса	-10.7284
▁Иҡтисади	-10.7286
▁объекта	-10.7286
▁традиция	-10.7288
▁таким	-10.7289
ргән	-10.7291
▁ергә	-10.7293
▁ҡасабаһы	-10.7293
▁БГПУ	-10.7294
▁объекттарын	-10.7294
НИК	-10.7298
▁Госкомитета	-10.73
мәт	-10.7301
▁эпи	-10.7303
▁телефоны	-10.7303
слов	-10.7304
▁шағир	-10.7309
ати	-10.731
▁противо	-10.7311
▁артынан	-10.7312
▁алманы	-10.7314
Башавтотранс	-10.7315
▁использовать	-10.7315
▁исполнителей	-10.7315
▁первая	-10.7315
лова	-10.7318
▁бүлмә	-10.7318
▁1922	-10.7319
▁төбәге	-10.7321
▁ресурс	-10.7321
андар	-10.7323
сия	-10.7324
скими	-10.7326
▁эшлә	-10.7328
▁тәртибе	-10.7331
▁Суд	-10.7332
шкин	-10.7333
▁БГМУ	-10.7335
▁уларҙа	-10.7338
▁должности	-10.7338
▁телеканал	-10.7339
▁значительно	-10.7341
▁1955	-10.7341
▁һынау	-10.7343
▁Хакимиәте	-10.7344
▁Эй	-10.7347
▁(1996)	-10.7349
ТЕ	-10.7349
▁Мир	-10.7351
▁Салих	-10.7352
раст	-10.7352
▁балаһы	-10.7352
▁пример	-10.7353
▁теленә	-10.7354
▁Ассоциации	-10.7356
▁бойороҡ	-10.7356
▁Әлбиттә	-10.7356
ебеҙ	-10.7356
пт	-10.7356
виз	-10.7358
▁карта	-10.7363
▁нему	-10.7364
Агро	-10.737
▁спор	-10.7371
▁корпусы	-10.7372
▁ур	-10.7373
▁ярыштар	-10.7376
шей	-10.7376
эк	-10.7376
▁УГАТУ	-10.7377
▁волейбол	-10.7377
▁реализацию	-10.7377
шие	-10.7377
▁миҙгел	-10.7378
▁утра	-10.7379
?»	-10.7379
▁кил	-10.7379
▁Яҡынса	-10.7379
лыҡтар	-10.7379
хана	-10.7381
▁1954	-10.7382
ково	-10.7383
▁медали	-10.7384
таль	-10.7384
▁вып	-10.7384
эм	-10.7385
▁инспектор	-10.7385
▁мохтаж	-10.7396
▁МА	-10.7397
▁продукцию	-10.7398
▁үткәрелде	-10.7398
▁нос	-10.7399
▁Архангел	-10.74
еңде	-10.7406
▁образован	-10.741
▁төҙөй	-10.741
НАЯ	-10.7411
▁(1989)	-10.7417
▁четверг	-10.7418
▁агрегат	-10.7419
▁землю	-10.7419
Гор	-10.7419
▁изменений	-10.742
▁Администрации	-10.7422
▁сығарылыш	-10.7423
▁сабый	-10.7425
▁фестивалендә	-10.7427
▁яуым	-10.7428
▁өйрәнеүгә	-10.743
it	-10.7435
дина	-10.7436
▁марте	-10.7436
▁аралашыу	-10.7439
▁реконструкции	-10.7439
▁бишенсе	-10.7439
▁картуф	-10.744
▁корм	-10.7441
▁собрания	-10.7442
▁Башкортостану	-10.7445
▁участвовали	-10.7446
▁учреждениях	-10.7447
акт	-10.7448
давать	-10.7451
▁ҡуйыла	-10.7451
▁диспансер	-10.7457
▁Ши	-10.7458
▁(1994)	-10.746
▁осадков	-10.746
▁филармонии	-10.746
▁проценттан	-10.7461
▁среду	-10.7461
▁ҡайғы	-10.7461
▁мать	-10.7462
▁мәктәпкәсә	-10.7462
▁стадион	-10.7462
▁Кама	-10.7463
▁профилле	-10.7465
▁отмечается	-10.7465
▁контакт	-10.7466
▁69	-10.7467
▁отделом	-10.7468
▁Институте	-10.747
▁Тан	-10.7471
▁Ойоштороусылар	-10.7475
-7	-10.7477
▁һорауҙар	-10.7481
нис	-10.7481
%-	-10.7481
▁пенсии	-10.7481
▁изобретений	-10.7481
▁полит	-10.7483
▁охот	-10.7483
▁уйнай	-10.7485
был	-10.7485
▁Ҡыҙ	-10.7487
▁Ростов	-10.7489
▁бының	-10.749
ra	-10.7492
▁урындарҙа	-10.7495
логи	-10.7495
▁алдына	-10.7495
▁еңеүсеһе	-10.7496
▁булғанда	-10.7499
▁ветерандар	-10.7501
▁ғинуарынан	-10.7501
Ленин	-10.7501
▁Дыуан	-10.7502
▁яһаясаҡ	-10.7502
▁ҡулланылған	-10.7502
▁позиция	-10.7503
▁кейеме	-10.7504
троп	-10.7506
абы	-10.7507
ОВО	-10.7508
▁юлға	-10.7508
▁жилых	-10.7509
▁сцен	-10.751
СКАЯ	-10.751
▁76	-10.7512
▁письмо	-10.7513
▁Кинзя	-10.7515
▁мод	-10.7517
▁глаз	-10.752
▁юго	-10.7521
▁ҡыҙыҡһынды	-10.7523
▁кибете	-10.7523
шки	-10.7524
▁иҫәбен	-10.7525
▁декабре	-10.7526
үк	-10.7529
▁Кал	-10.7529
▁сахар	-10.7531
ЕВ	-10.7534
▁выделено	-10.7535
▁числ	-10.7536
все	-10.7536
▁разно	-10.7538
▁артисты	-10.7542
▁һөжүм	-10.7544
▁учащихся	-10.7544
▁происходит	-10.7544
▁самое	-10.7545
▁погиб	-10.7545
▁вотчинны	-10.7545
▁Жители	-10.7546
чество	-10.7546
▁традиционно	-10.7546
▁77	-10.7548
▁VI	-10.755
▁белеү	-10.7552
▁ҡануниәт	-10.7553
ҙәрен	-10.7556
▁отмечают	-10.7557
истар	-10.7563
▁рәүешендә	-10.7563
▁өлкәлә	-10.7564
▁корпуса	-10.7564
ланд	-10.7565
▁әфәнде	-10.7565
▁Ведь	-10.7566
ОВА	-10.7568
▁любим	-10.757
▁Тау	-10.757
▁годов	-10.7573
▁мастеров	-10.7574
мур	-10.7576
▁кампанияһы	-10.7578
▁(2011)	-10.7578
▁Медицина	-10.7578
▁хужалыҡтары	-10.7579
▁самый	-10.7583
▁инвалидтар	-10.7586
▁гимназии	-10.7587
▁месторождения	-10.7587
▁некоторые	-10.7587
▁сәйәхәт	-10.7587
▁сюда	-10.7588
▁кандидатов	-10.7588
▁шәп	-10.7588
▁нигеҙләнгән	-10.7589
селәрҙең	-10.759
7.19	-10.7591
▁мөһиме	-10.7593
бикә	-10.7593
▁телевидение	-10.7596
▁газо	-10.7598
▁представлена	-10.76
▁итеүҙең	-10.7606
▁стан	-10.7607
десят	-10.7608
▁Конкурста	-10.7611
▁фараз	-10.7614
Бер	-10.7618
Молод	-10.7621
▁тамыр	-10.7624
▁тауышы	-10.7624
▁рәссам	-10.7625
▁получение	-10.7626
чные	-10.7628
▁урындар	-10.7628
▁Госдумы	-10.7629
▁спортивных	-10.7629
▁ниндәйҙер	-10.763
▁ребят	-10.7632
▁скот	-10.7632
▁Али	-10.7634
▁умартасылыҡ	-10.7637
▁врачей	-10.7638
▁Казахстана	-10.7638
һаҡ	-10.7639
еро	-10.7641
айте	-10.7642
ia	-10.7643
▁тему	-10.7645
-15	-10.7646
▁казак	-10.7646
▁медаль	-10.7647
▁конкурсов	-10.7648
▁принимает	-10.7651
▁Каждый	-10.7652
ново	-10.7652
ләштереү	-10.7653
▁основа	-10.7653
▁награжден	-10.7653
ально	-10.7655
-14	-10.7659
йҙар	-10.766
▁Крым	-10.7661
▁ауырыуҙар	-10.7662
▁килешеүҙәр	-10.7663
▁бренд	-10.7664
▁хәүефһеҙлеге	-10.7667
▁история	-10.7672
▁кәрәклеген	-10.7674
▁песен	-10.7675
▁Уч	-10.7676
▁молодые	-10.7676
▁Уларҙы	-10.7677
▁курорт	-10.7677
вшего	-10.768
тол	-10.768
▁побывал	-10.7681
▁системе	-10.7684
▁Рәми	-10.7684
АЯ	-10.7688
▁процессов	-10.7689
ивать	-10.7689
▁представ	-10.7693
▁Стерлитамака	-10.7693
▁Тогда	-10.7693
▁ситуацию	-10.7693
логия	-10.7694
▁муниципального	-10.7695
▁бюджеттан	-10.7695
▁ҡый	-10.7697
▁страх	-10.7698
▁1946	-10.7698
▁ярыш	-10.7704
-2017»	-10.7706
▁главным	-10.7708
ший	-10.7709
Башкирский	-10.7713
ЛЫ	-10.7714
▁Рами	-10.7716
▁Института	-10.7718
ЕС	-10.7719
тка	-10.7719
▁сезона	-10.7722
▁берлектәге	-10.7724
▁етем	-10.7725
▁82	-10.7727
▁йылдарға	-10.7729
▁колледжы	-10.7735
▁74	-10.7735
▁түбәндәге	-10.7736
▁хөкөм	-10.7736
▁интеллектуаль	-10.7736
▁тикшеренеү	-10.7737
▁БашГУ	-10.7738
▁Банк	-10.7739
▁йылдағы	-10.7741
сл	-10.7742
▁тикшерә	-10.7742
▁(2007)	-10.7744
ируется	-10.7749
▁назначения	-10.775
▁планирует	-10.7751
ИД	-10.7752
ходил	-10.7754
79	-10.7754
▁контроле	-10.7757
▁Наталья	-10.7758
▁ябыла	-10.7758
▁фигур	-10.7758
▁таратыу	-10.7758
тылған	-10.7762
Башкир	-10.7764
▁работники	-10.7764
▁Гуль	-10.7764
▁представляет	-10.7765
малар	-10.7765
▁ышаныслы	-10.7765
▁үләндәр	-10.7765
▁комплект	-10.7767
▁баҙар	-10.7767
▁следует	-10.7767
▁доллар	-10.7769
зарегистрировано	-10.777
▁Зәки	-10.7771
▁назвал	-10.7778
▁направлениям	-10.7779
▁полос	-10.7779
▁саммит	-10.778
вая	-10.7782
▁крестьян	-10.7785
▁родной	-10.7785
лмаған	-10.7789
▁риза	-10.7791
зо	-10.7801
▁оҙайлы	-10.7801
▁уңайынан	-10.7801
▁касается	-10.7802
▁остается	-10.7802
▁художников	-10.7803
Юлдаш	-10.7804
▁ведутся	-10.7805
▁проведению	-10.7806
▁ферм	-10.7806
▁Омск	-10.7806
▁заты	-10.7807
▁батальон	-10.7811
▁сәскәләр	-10.7813
▁мәсьәләне	-10.7814
емся	-10.782
▁модель	-10.7823
▁йәмғеһе	-10.7823
▁признан	-10.7823
▁различ	-10.7825
▁тартып	-10.7825
▁академияһының	-10.7828
▁Нимә	-10.783
уга	-10.7832
▁зат	-10.7833
▁Ло	-10.7833
▁71	-10.7835
▁күсеү	-10.7835
▁инициатив	-10.7835
▁визит	-10.7841
▁һөнәр	-10.7844
▁станут	-10.7846
▁биреп	-10.7848
▁башланған	-10.7849
▁1938	-10.785
▁знал	-10.7851
▁табл	-10.7852
▁итеүҙә	-10.7853
▁собственных	-10.7854
▁завершен	-10.7855
▁(1993)	-10.7856
▁психолог	-10.7861
▁тармағы	-10.7862
Мир	-10.7864
арт	-10.7864
▁Стерлитамакском	-10.7865
▁площадки	-10.7866
▁внимания	-10.7866
▁Конечно	-10.7866
▁дворян	-10.7868
▁берләшмәһе	-10.7868
▁Между	-10.7872
▁Сит	-10.7872
▁выпускников	-10.7873
▁парке	-10.7876
▁лег	-10.7882
Ки	-10.7886
▁кров	-10.7886
▁сәхнә	-10.7887
▁мартында	-10.7888
груз	-10.789
▁уртаҡ	-10.7891
▁ҡатнашыуға	-10.7892
бель	-10.7893
▁табыла	-10.7893
▁учетом	-10.7895
▁университетын	-10.7896
үр	-10.7897
▁мост	-10.79
▁Татьяна	-10.7901
крыл	-10.7901
▁красив	-10.7907
▁принят	-10.7908
тика	-10.7908
нулся	-10.7909
ву	-10.7909
▁Кам	-10.791
▁каждой	-10.791
▁наследия	-10.791
▁Үрге	-10.791
▁мечети	-10.791
▁Киләһе	-10.791
▁заниматься	-10.7911
сылыҡ	-10.7915
чки	-10.7919
▁уҡыусыһы	-10.7919
▁налогов	-10.7922
re	-10.7924
▁Муса	-10.7926
▁билет	-10.7927
дәрҙе	-10.7929
▁күрһәткестәр	-10.793
▁поблагодарил	-10.7932
▁тепла	-10.7933
▁уйланы	-10.7934
▁Беҙгә	-10.7934
▁показал	-10.7934
▁башҡорттарының	-10.7935
▁сына	-10.7938
▁һүрәт	-10.794
▁тотҡан	-10.7941
▁бәхет	-10.7941
▁Уже	-10.7941
▁эйәр	-10.7943
▁друга	-10.7946
▁ялан	-10.7947
▁ҡарамағында	-10.7949
▁новое	-10.795
Рос	-10.7953
▁тюрк	-10.7953
ьянов	-10.7953
▁старше	-10.7954
▁бүре	-10.7954
▁входит	-10.7955
▁диалог	-10.7955
▁финансов	-10.7958
▁дуҫлығы	-10.7962
▁хөрмәт	-10.7964
▁Советского	-10.7966
▁күләмен	-10.7973
▁реж	-10.7973
имов	-10.7975
кос	-10.7976
▁өмөт	-10.7976
▁Ауырғазы	-10.7976
▁появится	-10.7976
▁1932	-10.7981
▁оста	-10.7983
▁роле	-10.7986
▁башҡарыусылар	-10.7987
▁БСТ	-10.7989
ическим	-10.799
▁зоне	-10.7991
▁бурыстар	-10.7991
ch	-10.7992
слав	-10.7993
▁физ	-10.7995
атов	-10.7996
▁йәмғиәт	-10.7997
БАШ	-10.7997
летнего	-10.7999
▁башҡарылған	-10.8001
гал	-10.8002
▁Бог	-10.8004
▁тяжел	-10.8005
осн	-10.8008
стат	-10.8008
▁произошло	-10.8009
3,	-10.801
▁штат	-10.8011
▁вышел	-10.8015
▁үткәргес	-10.8016
▁мета	-10.8018
▁(1986)	-10.8019
▁хакимиәт	-10.8019
▁автомобилдәр	-10.802
шел	-10.8021
▁бүләкләнде	-10.8021
▁ите	-10.8023
сор	-10.8024
▁Белорецкого	-10.8024
▁үткәреләсәк	-10.8024
▁күпме	-10.8026
▁почт	-10.8027
▁включает	-10.8027
▁икеһе	-10.8028
▁приоритет	-10.8031
▁(1976)	-10.8032
СТ	-10.8032
▁математика	-10.8034
▁участниками	-10.8035
▁Благодар	-10.8037
▁хәүеф	-10.804
▁ребята	-10.804
▁береһендә	-10.804
▁проблемалар	-10.8041
▁Александра	-10.8042
▁индерелде	-10.8042
▁ипотека	-10.8042
▁подготовлен	-10.8042
▁Һөҙөмтәлә	-10.8042
▁значение	-10.8042
▁песня	-10.8043
▁организована	-10.8045
▁теорияһы	-10.8046
▁открылся	-10.8048
▁осрашыуы	-10.8051
▁Өсөнсө	-10.8053
▁Ғә	-10.8054
▁зон	-10.8055
рис	-10.8057
▁еңеүселәре	-10.8058
ләнә	-10.806
▁инвестор	-10.806
▁рәт	-10.8061
▁180	-10.8061
▁һул	-10.8063
пас	-10.8064
▁шыйыҡ	-10.8065
▁изделиелар	-10.8067
механик	-10.8069
▁61	-10.8069
▁призер	-10.8072
▁борт	-10.8072
тәргә	-10.8073
очной	-10.8074
▁зарур	-10.8075
▁птиц	-10.8076
завод	-10.8078
▁представителями	-10.8079
ённых	-10.8079
рук	-10.808
▁опытом	-10.8084
това	-10.8085
▁лицо	-10.8085
▁писателя	-10.8087
▁сюжет	-10.8087
▁Рәмил	-10.8088
▁Перед	-10.8088
▁приурочен	-10.8088
▁мәшғүллеге	-10.8089
▁көҙ	-10.8091
▁сделал	-10.8092
ҡо	-10.8094
ушки	-10.8096
▁Ман	-10.8098
▁горяч	-10.8098
ылда	-10.8107
▁Григорий	-10.8109
▁ятҡылығы	-10.8109
,6%	-10.8112
▁физика	-10.8113
▁Год	-10.8113
▁государств	-10.8115
▁ҡырҡ	-10.8116
▁әһәмиәтле	-10.8116
▁больных	-10.8118
la	-10.8119
очная	-10.812
▁подписан	-10.8121
лөк	-10.8121
шая	-10.8123
ЕЛ	-10.8125
▁Галина	-10.8125
лим	-10.8128
▁ғәскәр	-10.8129
▁системалары	-10.8131
▁Героя	-10.8132
▁төҙөргә	-10.8132
▁донъяның	-10.8132
дарының	-10.8132
▁пояс	-10.8132
▁результатам	-10.8133
▁кандидаты	-10.8136
зим	-10.8137
▁Денис	-10.8137
▁биләмәләре	-10.8138
▁хужа	-10.8139
▁туҡланыу	-10.814
▁яза	-10.814
▁мен	-10.8142
▁арҡа	-10.8147
▁призна	-10.8149
▁аэропорты	-10.8149
спи	-10.815
▁йондоҙ	-10.8152
▁селтәрҙәре	-10.8153
▁Бөтәһе	-10.8154
▁ран	-10.8154
▁ҡаҙаныштары	-10.8155
▁вокруг	-10.8156
енде	-10.8159
▁быт	-10.8161
▁площадью	-10.8164
▁совещание	-10.8164
▁картаһы	-10.8164
дают	-10.8165
▁руку	-10.8167
▁дальнейшем	-10.8167
▁диалект	-10.8167
рия	-10.8169
▁проч	-10.8171
▁участкаһы	-10.8172
▁труб	-10.8172
▁мөхәббәт	-10.8176
▁формирование	-10.8177
▁башлау	-10.8181
▁проведены	-10.8185
▁органич	-10.8188
▁награда	-10.8188
▁звон	-10.8188
▁пенсионер	-10.8189
▁селтәре	-10.819
▁телеканалы	-10.8191
▁тү	-10.8193
▁театрының	-10.8194
▁уфим	-10.8195
▁Минсельхоза	-10.8195
▁сифаты	-10.8195
,7%	-10.8197
▁торошон	-10.8197
▁Фильм	-10.8199
▁ждут	-10.82
▁инфекция	-10.8203
▁новом	-10.8204
▁издан	-10.8204
▁ваҡытлы	-10.8205
▁легко	-10.8207
▁бүлегендә	-10.8207
▁банков	-10.8209
▁яһалма	-10.8209
▁(1981)	-10.821
ҡыр	-10.821
▁лицей	-10.8211
▁исемдәре	-10.8212
▁төн	-10.8212
Абд	-10.8213
▁Иванова	-10.8214
▁пу	-10.8214
▁әйләнде	-10.8218
▁памятника	-10.8218
▁83	-10.8219
▁республикабыҙ	-10.8221
▁границ	-10.8221
▁ҡот	-10.8222
▁уҡсылар	-10.8223
▁һалып	-10.8223
▁уҡыған	-10.8224
▁районда	-10.8225
▁ҡыу	-10.8226
▁атом	-10.8229
▁1950	-10.8232
▁юғарыраҡ	-10.8232
дарында	-10.8235
▁Нурия	-10.8237
▁таныштырҙы	-10.8239
▁улицы	-10.8241
▁участвуют	-10.8244
▁Может	-10.8244
▁началась	-10.8249
▁представил	-10.825
▁Транспорт	-10.8251
▁апрель	-10.8253
секретарь	-10.8253
▁патриот	-10.8254
ҺЫ	-10.826
▁алмаштырыу	-10.8261
▁бот	-10.8262
▁ныҡлы	-10.8263
егет	-10.8267
▁большие	-10.8267
▁Ниңә	-10.8267
▁көтөү	-10.8269
▁(12	-10.8269
ОЛО	-10.827
▁китеү	-10.827
▁өҫтәне	-10.8271
▁шуларҙың	-10.8271
▁культурного	-10.8272
▁кәмегән	-10.8273
▁продолжается	-10.8273
▁статья	-10.8275
▁таң	-10.8277
бой	-10.8278
▁травм	-10.8278
парк	-10.8279
▁пояснили	-10.8281
▁знаком	-10.8283
▁металлургия	-10.829
▁большим	-10.829
▁(2009)	-10.829
▁вторник	-10.8291
▁палат	-10.8291
▁ебәрергә	-10.8292
—18	-10.8292
▁Алдағы	-10.8293
▁яҙмышы	-10.8294
▁1953	-10.8295
акушерский	-10.8297
▁мәҡәләләр	-10.8303
-12	-10.8303
▁уезд	-10.8303
▁пал	-10.8304
енную	-10.8305
Золот	-10.8305
▁кимәлен	-10.8312
▁хакимиәтендә	-10.8312
▁идти	-10.8313
▁эффективности	-10.8314
пря	-10.8315
▁телеканала	-10.8317
гали	-10.8317
ограф	-10.8317
▁создана	-10.8321
ида	-10.8322
▁указан	-10.8323
▁самой	-10.8323
1,5	-10.8326
чный	-10.8327
▁урынында	-10.8328
▁мәсьәләһен	-10.8332
▁инеп	-10.8335
▁коллег	-10.8335
▁лошадей	-10.8335
▁организовать	-10.8335
▁историю	-10.8335
▁иткәйне	-10.8336
▁компаниялар	-10.8338
▁осмотрел	-10.834
смотр	-10.8342
рау	-10.8345
▁марафон	-10.8347
▁Евразия	-10.8348
▁идаралығында	-10.8349
▁төшә	-10.835
▁бег	-10.8351
▁урам	-10.8351
▁удар	-10.8352
ваем	-10.8353
совет	-10.8354
▁Ял	-10.8355
▁78	-10.8355
▁160	-10.8357
▁индерергә	-10.8359
▁таны	-10.836
▁бүләкләү	-10.8361
▁ремонта	-10.8361
▁барасаҡ	-10.8361
▁стационар	-10.8362
▁төҙөүгә	-10.8364
вшихся	-10.8364
▁съезда	-10.8367
▁классов	-10.8368
▁тантанаһында	-10.8371
▁цена	-10.8372
▁юлын	-10.8376
ань	-10.838
сил	-10.838
матик	-10.838
▁диктант	-10.8381
▁сердца	-10.8381
▁культурно	-10.8383
▁мөнәсәбәттәре	-10.8383
▁аграрийҙары	-10.8385
▁һөйләшеү	-10.8385
▁ишек	-10.8392
▁ҡиммәт	-10.8394
жин	-10.8394
▁Шаран	-10.8395
▁тол	-10.8395
тте	-10.8399
▁Унан	-10.8399
▁войска	-10.8401
▁ихтыяж	-10.8402
▁Знамени	-10.8404
▁бакалея	-10.8404
▁зрителей	-10.8404
▁АҠШ	-10.8404
▁почему	-10.8404
▁украин	-10.8405
▁состава	-10.8406
▁әйтеп	-10.8407
үҙе	-10.8407
▁төбәктәрендә	-10.8409
▁лигаһы	-10.8411
▁внешне	-10.8411
▁хеҙмәткәрҙәренә	-10.8421
▁размещен	-10.8421
▁лиш	-10.8423
теле	-10.8424
▁сотрудничество	-10.8427
▁хәүефле	-10.8428
▁ниңә	-10.8429
▁сырья	-10.8429
▁количества	-10.8432
казан	-10.8432
▁формат	-10.8432
▁теләйем	-10.8433
▁1935	-10.8434
әләр	-10.8435
▁450	-10.8438
▁знает	-10.8438
хәҙерге	-10.8439
▁файҙалана	-10.8443
▁систему	-10.8445
▁минимумы	-10.8447
быр	-10.8449
▁ярмарка	-10.8449
▁Башкирская	-10.8449
▁средних	-10.845
▁второе	-10.845
▁әсә	-10.8452
▁ҡайтҡан	-10.8452
▁берегу	-10.8452
▁танк	-10.8453
▁инвалидов	-10.8454
▁Участник	-10.8454
▁күрергә	-10.8455
▁деле	-10.8455
классы	-10.8456
▁1921	-10.8457
▁могу	-10.8458
ителя	-10.8458
▁тәртибен	-10.8467
▁Йома	-10.8469
▁общество	-10.8473
▁борьбы	-10.8473
▁руководителей	-10.8473
НА	-10.8476
▁климат	-10.8477
▁рассказ	-10.8477
лаш	-10.8478
▁кроме	-10.8478
▁башланғысы	-10.8479
▁егеттәр	-10.848
▁йәштәге	-10.8481
рим	-10.8481
▁ҡатнашыуы	-10.8483
▁күрһәткестәре	-10.8484
▁физкультура	-10.8485
▁мөмкинлеген	-10.8485
технолог	-10.8486
▁запланировано	-10.8488
▁бүлексәләре	-10.849
полне	-10.8491
▁сығымдар	-10.8493
▁дожди	-10.8494
ләге	-10.8495
▁проектты	-10.8495
▁Әлшәй	-10.8496
▁Ҡырғыҙстан	-10.8497
▁торгов	-10.8497
▁ҡабат	-10.85
▁минутта	-10.85
▁йырҙары	-10.8502
производство	-10.8507
▁мои	-10.8511
▁алыр	-10.8516
Ҡара	-10.8516
дали	-10.8517
▁энергия	-10.8519
▁Делегация	-10.852
▁87	-10.8524
▁1936	-10.8526
ального	-10.8526
зә	-10.8529
▁почв	-10.853
▁өлкәндәр	-10.8531
▁выезд	-10.8531
▁Бол	-10.8532
▁парад	-10.8532
▁телевидениеһы	-10.8533
▁вдруг	-10.8533
коронавирусной	-10.8534
▁стен	-10.8536
аҙ	-10.854
▁атаны	-10.8542
▁класлы	-10.8543
▁никогда	-10.8544
тым	-10.8545
▁консультация	-10.8546
▁проблемаларына	-10.8546
лектәре	-10.8548
et	-10.8548
▁көҙгө	-10.8552
ическом	-10.8559
▁каждом	-10.856
Яңы	-10.8561
остью	-10.8563
▁шыршы	-10.8566
▁осрашыуҙа	-10.8566
▁звания	-10.8566
▁журнала	-10.8568
▁танышырға	-10.8568
▁республиканском	-10.8568
▁һөйлә	-10.8574
▁например	-10.8575
▁(6	-10.8576
▁Ее	-10.8578
▁плод	-10.8579
▁берәү	-10.858
▁склад	-10.8589
▁модернизации	-10.859
▁дизель	-10.859
▁завтра	-10.8591
▁Фән	-10.8592
лаҡ	-10.8598
▁яҙып	-10.8599
▁сколько	-10.86
▁эко	-10.86
▁транс	-10.8601
▁эпос	-10.8604
▁бойом	-10.8606
егеттәр	-10.8609
үҙ	-10.861
мау	-10.8612
▁газет	-10.8612
▁Кирилл	-10.8613
▁яратҡан	-10.8614
енное	-10.8614
▁сроки	-10.8615
▁атап	-10.8615
▁донъяға	-10.8617
▁тере	-10.8619
▁(7	-10.8619
зия	-10.8621
▁палата	-10.8625
V	-10.8627
▁издания	-10.8627
ҡын	-10.8628
▁пассажиров	-10.8631
ләрҙең	-10.8632
рырға	-10.8633
һеңме	-10.8635
▁обуча	-10.8635
▁Ейәнсура	-10.8637
▁пособия	-10.8637
▁танылды	-10.8637
▁Лилит	-10.8638
НЫЙ	-10.8641
▁жилищного	-10.8642
▁һарайында	-10.8643
▁сентябре	-10.8645
▁Башҡа	-10.8648
первые	-10.8651
ғымдағы	-10.8653
com	-10.8653
▁нее	-10.8655
өгө	-10.8657
▁ҡунаҡтары	-10.8658
▁Таш	-10.8659
▁ниж	-10.8664
▁ансамбля	-10.8665
▁хеҙмәткәрҙәр	-10.8665
ряду	-10.8665
▁содержание	-10.8666
▁объекттары	-10.8666
▁центнер	-10.8669
▁хотя	-10.8672
форум	-10.8679
▁шуны	-10.8682
▁ферма	-10.8683
▁мәктәптә	-10.8683
▁диагностики	-10.8684
▁Институт	-10.8685
▁Миңә	-10.8686
▁осуществляется	-10.8687
▁ҡоштар	-10.8689
▁Национальны	-10.8692
▁направлении	-10.8693
сағы	-10.8697
▁вәкиллеге	-10.8701
▁көнбайыш	-10.8703
▁эшләүсе	-10.8704
▁очеред	-10.8705
▁Көйөргәҙе	-10.8708
▁Мероприятие	-10.8708
▁Башкирию	-10.8708
▁здание	-10.8708
▁мәғлүмәтте	-10.8709
▁звезд	-10.8709
калар	-10.8709
▁самом	-10.8714
▁үлтер	-10.8719
▁сығырға	-10.8719
▁донъяла	-10.8719
майор	-10.872
▁денежн	-10.872
▁кинотеатр	-10.872
оид	-10.8721
▁доход	-10.8722
▁тикшеренеүҙәре	-10.8723
хал	-10.8723
▁состоит	-10.8723
▁тыл	-10.8724
Йыл	-10.8724
▁кубогы	-10.8724
▁Сев	-10.8725
▁Сараны	-10.8727
▁институте	-10.8728
▁тарт	-10.8729
▁баз	-10.8729
▁һалдаттар	-10.873
ело	-10.873
▁Воз	-10.873
▁бой	-10.8731
▁преддвери	-10.8731
▁окончил	-10.8731
▁погибших	-10.8732
▁Вместе	-10.8732
▁встречу	-10.8732
▁литр	-10.8733
▁Казанской	-10.8734
▁новая	-10.8738
▁өлкәләре	-10.8739
▁Василий	-10.8739
▁говорят	-10.874
▁ша	-10.874
фик	-10.8741
ающих	-10.8741
▁(1973)	-10.8743
▁һанын	-10.8749
▁яҡҡа	-10.8751
▁уйла	-10.8753
▁помещения	-10.8755
▁Осрашыу	-10.8756
▁атыу	-10.8757
▁проекттарҙы	-10.8757
▁кешеһе	-10.8759
Таш	-10.8761
▁кәмеүе	-10.8761
полит	-10.8761
ерҙар	-10.8763
▁алмаған	-10.8763
▁15-	-10.8766
дарына	-10.8767
сты	-10.8768
▁ҡәбер	-10.8769
▁1,3	-10.8774
▁Беҙҙә	-10.8775
▁чу	-10.8776
▁ашырыуға	-10.8777
һаң	-10.8777
бая	-10.8778
▁Нефть	-10.8779
▁ғин	-10.878
▁әйләнеп	-10.878
▁тиелә	-10.8782
▁уҙасаҡ	-10.8783
▁крупные	-10.8788
▁Артем	-10.8788
пен	-10.8788
▁пациентов	-10.8791
▁(2002).	-10.8792
▁кож	-10.8793
▁Хәҙерге	-10.8794
▁этапе	-10.8794
▁средстволар	-10.8797
▁известный	-10.8798
▁Сир	-10.8798
▁Ҡар	-10.8799
▁масса	-10.8799
▁вост	-10.8801
▁народной	-10.8802
▁теләй	-10.8802
кас	-10.8803
▁юҡҡа	-10.8804
▁бигерәк	-10.8804
▁Изге	-10.8805
▁асып	-10.8806
▁мәсьәләләренә	-10.8807
,3%	-10.8809
агай	-10.8812
Петербургта	-10.8815
▁мәғдән	-10.8817
▁Пока	-10.882
▁компаниялары	-10.8822
шь	-10.8825
▁вәғәҙә	-10.8826
▁тон	-10.8827
▁подростков	-10.8827
▁Фатих	-10.8828
▁ознакомился	-10.8829
▁тамаша	-10.883
▁Кесе	-10.8831
▁Белорецк	-10.8834
▁Һеҙҙең	-10.8834
вшим	-10.8837
▁ҡулға	-10.8839
▁формаһы	-10.884
▁вида	-10.884
▁Начало	-10.8842
▁деревьев	-10.8851
▁современный	-10.8851
▁сигнал	-10.8851
▁баҡсалары	-10.8852
▁аралаш	-10.8852
▁любви	-10.8852
▁яһа	-10.8855
▁шуның	-10.8855
▁Перво	-10.8857
ИЙ	-10.886
▁дис	-10.886
▁мясо	-10.8861
▁майҙансығы	-10.8861
▁йүнәлештә	-10.8862
▁профсоюзов	-10.8863
транс	-10.8863
дорожного	-10.8864
▁донъяһы	-10.8864
▁вагон	-10.8865
▁граждандарҙы	-10.8867
▁эколог	-10.8868
кул	-10.8869
▁иногда	-10.887
рабатыва	-10.8872
▁асфальт	-10.8873
▁насчитыва	-10.8874
▁гидрометеоролог	-10.8875
▁ҡәнәғәт	-10.8875
▁бухгалтер	-10.8875
▁зависимости	-10.8875
▁йыйынтығы	-10.8875
▁нескольких	-10.8875
▁орнамент	-10.8875
▁раньше	-10.8875
▁уменьш	-10.8875
▁Эта	-10.8875
▁азот	-10.8876
терапия	-10.8876
▁асты	-10.8877
▁собственно	-10.8877
▁биләмәһе	-10.8877
▁тал	-10.8878
▁ҡағыла	-10.8878
▁Март	-10.888
▁организованы	-10.8882
▁Дом	-10.8883
▁портал	-10.8886
▁костюм	-10.8889
малы	-10.8892
▁Ҡу	-10.8894
▁шөғөлләнгән	-10.8896
▁такая	-10.8898
▁суб	-10.8899
әндәр	-10.8899
▁соблюдени	-10.8899
▁инфекции	-10.8899
▁парламенты	-10.8901
▁китеп	-10.8902
исследовательск	-10.8903
▁пенсионерҙар	-10.8907
▁бабай	-10.8908
▁национально	-10.8909
ающие	-10.891
▁Новый	-10.891
▁изучение	-10.8911
▁лесного	-10.8912
▁получать	-10.8913
ҡас	-10.8913
дир	-10.8916
▁перспектив	-10.8916
▁Халыҡтар	-10.892
ТР	-10.892
ебеҙҙе	-10.8922
▁превысил	-10.8924
▁бергәләп	-10.8929
теля	-10.8933
▁төркөмдәре	-10.8934
▁создании	-10.8934
лиц	-10.8937
▁контроля	-10.8938
▁тәртип	-10.8938
Бо	-10.894
▁хәүефһеҙлек	-10.8941
▁ебәрә	-10.8942
▁Эшҡыуарлыҡ	-10.8948
▁порядке	-10.8948
▁кәңәшмә	-10.8948
▁муйын	-10.8949
ОМ	-10.895
▁мәҙәниәтен	-10.8951
техн	-10.8951
—90	-10.8953
▁обмен	-10.8953
▁Ветер	-10.8954
гур	-10.8955
▁Благовар	-10.8956
рес	-10.8958
▁хоҡуҡтары	-10.896
ҙарында	-10.8961
▁яман	-10.8962
уха	-10.8963
нец	-10.8969
▁бынан	-10.897
▁ижтимағи	-10.8972
▁мәхрүм	-10.8972
▁үҙешмәкәр	-10.8972
бәр	-10.8974
▁будто	-10.8974
нцев	-10.8975
▁хирург	-10.8976
▁министрлыҡ	-10.8976
▁программаһына	-10.8978
▁Бор	-10.8979
▁1929	-10.8979
▁высшего	-10.8981
▁алмаштыр	-10.8982
альной	-10.8984
▁халыҡтарының	-10.8986
▁минимум	-10.8986
▁мәктәбендә	-10.8986
▁ҡушылды	-10.8986
▁яуаплылыҡ	-10.899
▁хотел	-10.8992
▁роз	-10.8993
▁снижение	-10.8993
▁плане	-10.8994
▁ойошторорға	-10.8996
▁поддержка	-10.8996
▁преимущественно	-10.8996
▁спектакля	-10.8996
▁защите	-10.8997
▁Затем	-10.8997
▁киңәйтеү	-10.8998
рәт	-10.8998
▁сохранения	-10.8999
▁200-	-10.8999
▁былтырғы	-10.9004
▁Калинин	-10.9005
▁моторҙар	-10.9006
▁Гөл	-10.9008
лгән	-10.9009
▁реже	-10.9011
числен	-10.9012
▁мәғлүмәте	-10.9015
▁Йән	-10.9016
▁возле	-10.9016
▁Мелеуз	-10.9021
▁смерти	-10.9021
▁участок	-10.9021
▁тапшырылған	-10.9021
▁арзан	-10.9021
▁ябыҡ	-10.9021
▁әҙерләргә	-10.9023
инского	-10.9025
▁улица	-10.9025
▁плит	-10.9028
▁ғәскәре	-10.9032
верх	-10.9032
▁(1977)	-10.9035
▁мәҫәлән	-10.9037
▁семян	-10.9038
▁хр	-10.9038
▁Мөхәмәт	-10.904
▁ятҡылыҡтары	-10.9041
▁дев	-10.9042
▁хупланы	-10.9044
▁шәмбе	-10.9044
▁месторождений	-10.9045
▁становится	-10.9045
▁лучшим	-10.9046
пом	-10.9048
▁Хан	-10.9051
▁иҡт	-10.9053
▁1866	-10.9054
-8	-10.9055
▁Правительством	-10.9056
▁ҡомартҡыһы	-10.906
▁страховка	-10.906
Иванов	-10.906
▁89	-10.906
ҙәрҙе	-10.9063
▁даны	-10.9064
▁Союзы	-10.9066
плав	-10.9067
▁рос	-10.9068
▁Кул	-10.9068
▁бейек	-10.907
▁удмурт	-10.907
▁темп	-10.9071
▁күсеп	-10.9071
▁Чтобы	-10.9073
▁(1987)	-10.9075
▁әйтергә	-10.9076
▁награждения	-10.9077
▁направление	-10.9077
▁стенд	-10.9077
▁провели	-10.9077
▁башын	-10.9079
▁телдәр	-10.9084
КИ	-10.9086
▁лист	-10.9089
▁Батыр	-10.9091
ац	-10.9093
▁дарыу	-10.9093
▁растения	-10.9095
▁Ҡайҙа	-10.9095
▁булманы	-10.9096
▁новую	-10.9096
▁алыш	-10.9096
▁ждет	-10.9096
фт	-10.9097
▁историко	-10.9103
ткән	-10.9106
▁(1982)	-10.9107
▁телефону	-10.9107
▁һарыҡ	-10.9111
▁артабанғы	-10.9113
▁педагогический	-10.9115
▁горных	-10.9115
▁айҙа	-10.9115
▁ужым	-10.9123
▁визита	-10.9123
цами	-10.9123
▁шест	-10.9125
▁программалары	-10.9125
▁казах	-10.9129
Ни	-10.9133
▁Закир	-10.9133
▁ветеринар	-10.9136
▁компанияһының	-10.9136
ғын	-10.9137
коммунального	-10.9139
▁йорттарында	-10.9139
изма	-10.9141
▁культ	-10.9144
▁совместны	-10.9144
▁никто	-10.9145
▁Алтын	-10.9146
ҙер	-10.9146
▁абруйлы	-10.9148
▁сообщается	-10.9148
,4%	-10.9148
▁инвесторҙар	-10.915
әп	-10.9151
Тау	-10.9152
▁муниципалитетов	-10.9153
▁(1978)	-10.9157
▁Ишимбай	-10.9159
▁пленарно	-10.9162
▁түлә	-10.9163
▁исполня	-10.9163
ельской	-10.9164
▁использованием	-10.9168
▁Мәсетле	-10.9168
▁правительство	-10.9169
▁(16	-10.9169
Известия	-10.9169
▁УГНТУ	-10.9169
▁Баҡалы	-10.9169
▁зафиксированы	-10.9169
рҙар	-10.9169
▁берҙә	-10.917
es	-10.9171
▁Красного	-10.9173
▁Север	-10.9174
▁необходимости	-10.9177
▁сохранение	-10.9177
▁тауарҙар	-10.9179
▁проб	-10.9179
▁автомат	-10.918
БА	-10.918
▁зло	-10.9182
▁нәҫел	-10.9186
▁тейешбеҙ	-10.9187
▁поля	-10.9188
-30	-10.9189
▁яна	-10.9194
▁баб	-10.9194
▁комплекстары	-10.9194
▁96	-10.9195
▁Баймакского	-10.9196
пуск	-10.9196
▁тоҙ	-10.9196
▁языку	-10.9197
▁күсемһеҙ	-10.9197
РОВ	-10.9199
▁ҡороу	-10.9199
▁точки	-10.92
▁һайлауҙар	-10.9202
гра	-10.9204
▁берәй	-10.9205
▁имеются	-10.9208
▁дорож	-10.9208
шта	-10.9211
ужа	-10.9211
▁(1974)	-10.9212
▁әҫәрҙәр	-10.9218
▁обслуживания	-10.9219
▁распоряжение	-10.9219
▁совещания	-10.9219
▁яһалған	-10.9219
▁вокзал	-10.9219
▁быяла	-10.9221
▁күренеш	-10.9222
▁ҡатнашыусыларға	-10.9223
▁һеҙҙе	-10.9224
▁кимәлдәге	-10.9228
▁ап	-10.9229
▁направлений	-10.9229
лектәр	-10.9231
МӘ	-10.9232
▁ише	-10.9235
▁субъекттары	-10.9238
▁лекарств	-10.9241
▁өҙ	-10.9242
кулов	-10.9243
▁кафе	-10.9243
төшөм	-10.9243
▁килтерҙе	-10.9243
▁последний	-10.9244
▁Забелин	-10.9244
▁йыйылды	-10.9244
экономического	-10.9244
▁молоко	-10.9244
▁Тимәк	-10.9245
Мар	-10.9245
▁согласно	-10.9247
▁традиций	-10.9247
▁Кеше	-10.9248
▁900	-10.925
▁закрыт	-10.9251
,2%	-10.9252
▁станция	-10.9253
вание	-10.9254
▁архитектор	-10.9254
▁занял	-10.9258
▁Маг	-10.926
▁многоквартирны	-10.9261
Рәсәйҙең	-10.9261
▁темаһына	-10.9262
▁ҡурай	-10.9262
▁теш	-10.9263
▁тела	-10.9265
▁друзья	-10.9269
▁инфекцион	-10.9269
▁Торгово	-10.9269
▁опять	-10.9269
▁ғәҙәти	-10.9269
▁ихлас	-10.927
▁садов	-10.927
Башкирская	-10.9272
▁чуть	-10.9272
▁текущем	-10.9272
▁ҡом	-10.9275
▁Анатолий	-10.9275
пустить	-10.9276
▁объединение	-10.928
▁84	-10.9281
▁оказа	-10.9282
le	-10.9285
альных	-10.9287
▁ағастар	-10.9291
▁уд	-10.9292
▁Шамил	-10.9292
▁методик	-10.9293
▁Байраҡ	-10.9296
бәк	-10.9303
▁статистика	-10.9308
▁Куйбышев	-10.931
▁һөҙөмтә	-10.9312
▁әгәр	-10.9313
▁баланы	-10.9314
▁земельных	-10.9315
▁Чи	-10.9317
ығыҙҙы	-10.9322
▁мэрии	-10.9323
▁сөгөлдөрө	-10.9328
▁командалары	-10.9329
ur	-10.9329
▁нефтехимия	-10.9332
▁4,5	-10.9333
тяж	-10.9333
▁магнит	-10.9335
▁майға	-10.9335
▁жилье	-10.9336
▁участвовал	-10.9336
▁чувств	-10.9337
▁етештереүселәр	-10.9338
ЕЙ	-10.9339
▁Мак	-10.934
▁восьми	-10.9341
▁Мәктәп	-10.9342
▁ҡалалар	-10.9343
▁бойороғо	-10.9344
▁Граждандар	-10.9345
▁расчет	-10.9348
▁ойошторған	-10.9348
▁һыуыҡ	-10.9348
нефть	-10.9349
▁Российского	-10.935
▁һора	-10.9352
▁Белорецком	-10.9353
▁круп	-10.9354
▁Бирского	-10.9354
▁ведомстволар	-10.9358
▁(20	-10.936
▁субъект	-10.9361
▁Орджоникидзе	-10.9361
күл	-10.9364
▁88	-10.9365
▁(1990)	-10.9366
▁Абдул	-10.9367
интернат	-10.9367
▁позволяет	-10.937
▁помочь	-10.937
▁саҡыр	-10.9373
▁правительстве	-10.9374
▁производстве	-10.9375
▁ташы	-10.9375
Волга	-10.9376
▁000	-10.9376
▁2023	-10.9381
▁предложение	-10.9382
▁ауырыуҙары	-10.9383
▁октябре	-10.9394
▁йәкшәмбе	-10.9395
▁сос	-10.9396
▁наблюда	-10.9397
▁юрт	-10.9398
▁байрамдары	-10.9398
▁конкурстар	-10.9399
енс	-10.9401
▁ситкә	-10.9401
душ	-10.9403
▁стоял	-10.9406
ьный	-10.9407
▁ебәр	-10.9407
овали	-10.9407
ОТ	-10.9408
▁Мулла	-10.9409
ендәге	-10.941
▁эстрада	-10.9412
▁эффектив	-10.9412
▁(1984)	-10.9416
деж	-10.9416
▁письма	-10.9419
▁возможны	-10.942
▁современных	-10.942
▁хыял	-10.942
▁Олимпия	-10.9421
▁индустриаль	-10.9421
▁хочу	-10.9421
▁тулҡын	-10.9421
хоз	-10.9422
▁дороге	-10.9422
▁материально	-10.9423
ғәмәли	-10.9424
▁турист	-10.9425
▁комп	-10.9426
▁97	-10.9429
▁сәләмәт	-10.943
▁дорогах	-10.9431
▁бесән	-10.9431
▁участникам	-10.9432
at	-10.9433
▁больница	-10.9434
▁речь	-10.9435
▁сложно	-10.9437
сероссийского	-10.9438
▁любой	-10.944
▁миллиардов	-10.9443
▁ҡарала	-10.9444
▁воскресенье	-10.9446
▁участию	-10.9446
▁Вадим	-10.9446
ләшеү	-10.9446
200	-10.9446
▁кадет	-10.9446
▁десять	-10.9447
▁сложности	-10.9448
▁һаҡланған	-10.9448
▁һунар	-10.945
▁эштәрҙе	-10.945
▁имтихан	-10.9458
▁кап	-10.9459
Рус	-10.9464
▁энергетика	-10.9465
▁92	-10.9468
▁Казахстан	-10.9469
фан	-10.9471
▁Тәтешле	-10.9472
▁брак	-10.9472
▁ученых	-10.9472
▁знаменит	-10.9473
▁образований	-10.9477
▁Ульяновск	-10.9477
▁үҙләштереү	-10.9478
▁установлена	-10.9485
цен	-10.9488
▁инициативе	-10.949
▁француз	-10.9493
▁музее	-10.9495
▁бөйөк	-10.9497
УЛЛИН	-10.9497
▁второго	-10.9498
матов	-10.9498
▁успел	-10.9498
ләмә	-10.95
вшиеся	-10.9504
▁мяс	-10.9504
лот	-10.9506
▁яры	-10.9506
▁тамамлау	-10.9506
5%	-10.9506
▁третье	-10.9507
▁входят	-10.951
▁часа	-10.9514
ПРО	-10.9515
▁йөрө	-10.9516
▁белдерҙеләр	-10.9516
▁платы	-10.9517
ГО	-10.9521
▁выборы	-10.9522
▁штабы	-10.9523
▁сусҡа	-10.9523
▁Красноярск	-10.9523
▁яҡтыртыу	-10.9523
▁запрет	-10.9524
▁февраль	-10.9526
▁Мед	-10.9526
▁сложи	-10.9527
▁колледж	-10.9527
▁бюджетынан	-10.9528
ҡты	-10.9531
▁Сим	-10.9532
▁мае	-10.9533
▁ғалимдары	-10.9536
▁ваш	-10.9538
▁композиция	-10.954
оза	-10.954
▁кей	-10.954
рҙә	-10.9543
▁иҫәпләү	-10.9544
▁съезы	-10.9545
▁отходов	-10.9549
▁возможностями	-10.9549
▁градусҡаса	-10.9554
▁Дома	-10.9557
▁хо	-10.956
▁утром	-10.9561
▁Йосопов	-10.9562
▁учебно	-10.9562
▁Америка	-10.9563
Петербурге	-10.9564
рал	-10.9566
▁трудно	-10.9568
▁һорай	-10.9569
евым	-10.9569
▁Төрлө	-10.9575
▁аукцион	-10.9575
▁баһаланы	-10.9575
▁государственные	-10.9575
▁Германии	-10.9576
▁правления	-10.9577
▁әсе	-10.9577
▁мөхитте	-10.9577
▁йылытыу	-10.9577
▁(1995)	-10.958
▁журналы	-10.9581
▁пришли	-10.9581
▁соревнованиях	-10.9581
▁өйәҙ	-10.9583
▁170	-10.9584
▁сараларҙы	-10.9586
▁сикләү	-10.9586
▁вход	-10.9586
▁спорты	-10.9587
йек	-10.9587
,8%	-10.9589
▁(15	-10.959
▁бүлен	-10.9591
Со	-10.9592
▁мөнәсәбәт	-10.9592
▁участках	-10.9593
▁эшмәкәрлегенә	-10.9594
▁ҡунаҡ	-10.9595
чак	-10.9595
▁объявил	-10.9596
▁азат	-10.9597
▁Моск	-10.9598
▁умер	-10.9598
▁покрыт	-10.96
▁будущее	-10.96
СА	-10.9601
лении	-10.9603
▁ҡатлам	-10.9606
▁ғәскәрҙәре	-10.9606
▁каб	-10.961
чётлы	-10.9613
Бел	-10.9615
сель	-10.9615
▁органами	-10.9616
▁төҙөлөшөн	-10.9617
▁экспозиция	-10.9618
һәң	-10.9619
▁волос	-10.9621
▁Нуриман	-10.9624
маҫҡа	-10.9626
▁Приволжского	-10.9626
▁возглавил	-10.9626
▁Различают	-10.9626
▁өйө	-10.9626
▁Айбулат	-10.9627
▁йыйған	-10.9627
▁ЦИК	-10.9627
▁Тарих	-10.9628
▁Ат	-10.9632
▁третий	-10.9636
▁(1975)	-10.9636
▁туристар	-10.9636
ющиеся	-10.9638
▁бб	-10.9648
ҙәрҙең	-10.9651
▁майҙансыҡ	-10.9652
▁Учалинского	-10.9652
▁Эдуард	-10.9652
▁Бәлки	-10.9652
▁детской	-10.9653
▁формирования	-10.9653
▁действий	-10.9655
▁ИА	-10.9656
лекте	-10.9659
еры	-10.9659
▁(1966)	-10.966
▁мари	-10.9665
▁искусство	-10.9666
клин	-10.9666
▁стартовал	-10.9666
елеп	-10.9666
▁Аграр	-10.9667
▁дуҫ	-10.9669
▁внутри	-10.9673
▁производствоһы	-10.9674
▁министрлығына	-10.9675
▁каникул	-10.9676
—30	-10.9676
▁илдәр	-10.9677
▁Приволжском	-10.9679
▁карантин	-10.9679
▁коров	-10.9679
▁аэропорта	-10.9679
▁саҡырылған	-10.9679
▁Создан	-10.9679
▁тупланған	-10.9681
▁аҙыраҡ	-10.9683
▁тәҙрә	-10.9685
▁япраҡ	-10.9686
▁ҡуй	-10.9686
▁дана	-10.9687
Ватан	-10.9687
▁правовой	-10.9688
▁Именно	-10.9688
▁театров	-10.969
▁балы	-10.9691
▁ерендә	-10.9691
▁программалар	-10.9692
▁һабантуй	-10.9692
леш	-10.9692
дро	-10.9693
▁известна	-10.9693
▁аэро	-10.9694
▁мөмкинлектәр	-10.9696
▁мәжбүр	-10.9698
▁приём	-10.9702
▁интервью	-10.9704
▁оркестры	-10.9704
▁Ҡыш	-10.9705
▁медресе	-10.9705
▁Екатерина	-10.9705
▁технических	-10.9706
▁күренә	-10.9708
▁башҡарған	-10.9709
▁сан	-10.971
▁балсыҡ	-10.9711
▁сведения	-10.9711
▁табырға	-10.9712
▁1924	-10.9713
▁25-	-10.9715
ъезд	-10.9716
▁отношении	-10.9718
▁указы	-10.9718
▁йырҙар	-10.9719
ондо	-10.9721
▁ҡатнашыусыларҙы	-10.9721
▁договору	-10.9722
▁разные	-10.9722
каһы	-10.9723
▁связан	-10.9723
▁тәүҙә	-10.9724
▁биреүсе	-10.9726
ДА	-10.9728
раф	-10.973
▁собственности	-10.9733
▁тыуыуына	-10.9733
материал	-10.9734
▁шат	-10.9735
▁соотв	-10.9736
▁банка	-10.9736
▁тирмәне	-10.9736
▁полка	-10.9737
▁уңыштар	-10.974
▁включен	-10.974
▁земство	-10.9742
▁селтәрҙә	-10.9745
▁хореография	-10.9746
▁әсәлек	-10.9746
▁үткәр	-10.9746
▁установлены	-10.9746
▁Алдан	-10.9747
▁эшенә	-10.9747
вший	-10.9747
▁Сан	-10.9751
уша	-10.9754
▁ебәргән	-10.9756
▁моғайын	-10.9757
▁увидеть	-10.9757
▁влияние	-10.9758
яться	-10.9761
▁нож	-10.9762
▁1951	-10.9762
▁вошла	-10.9762
▁Стар	-10.9763
▁1952	-10.9763
давал	-10.9763
▁изучения	-10.9764
▁мил	-10.9764
▁вокал	-10.9766
▁Үзбәкстан	-10.9767
▁инструментов	-10.9767
лик	-10.9769
▁заметил	-10.977
▁социальные	-10.9771
▁туризму	-10.9772
▁Ҡол	-10.9772
▁тапшыра	-10.9774
▁Академии	-10.9775
▁тат	-10.9775
▁һөй	-10.9778
▁ҡалаһына	-10.9782
▁Осрашыуҙа	-10.9783
▁Владислав	-10.9784
▁рәүешле	-10.9784
▁Воронеж	-10.9784
mail	-10.9784
▁уйнау	-10.9784
ҡатнашыусыларҙың	-10.9784
▁безработных	-10.9785
▁автомобилей	-10.9786
▁содействия	-10.9789
▁мираҫ	-10.979
▁1925	-10.9792
—12	-10.9794
▁яһаған	-10.9796
лаусы	-10.9797
▁остро	-10.9798
▁музыкаһы	-10.9801
—20	-10.9802
▁Всемирны	-10.9803
▁һөҙөмтәлелеген	-10.9804
▁зарплата	-10.9804
▁иғтибарын	-10.9805
нөң	-10.9806
▁рассчитан	-10.9808
анг	-10.981
▁обработки	-10.981
▁бойҙай	-10.981
▁ебәрелгән	-10.9811
▁русского	-10.9811
▁вечера	-10.9811
инвест	-10.9813
▁плот	-10.9814
▁Сама	-10.9815
метр	-10.9816
▁пещер	-10.9817
▁главное	-10.9817
▁синтез	-10.9818
▁дожд	-10.9818
▁сентябрь	-10.9819
юсь	-10.982
▁һөйләшеүҙәр	-10.9821
ГЕ	-10.9822
▁исполнительной	-10.9823
▁действовать	-10.983
▁точно	-10.983
▁Өй	-10.9831
▁ҡор	-10.9831
▁уҡып	-10.9832
▁каф	-10.9834
▁Нестеров	-10.9835
▁эконом	-10.9837
▁Урындағы	-10.9838
▁коммуникациялар	-10.9838
▁уфимцев	-10.9841
▁мониторинг	-10.9842
▁86	-10.9846
▁выборов	-10.9846
▁Национально	-10.9847
▁Года	-10.9848
▁ҡорамалдары	-10.9854
▁дарыуҙар	-10.9854
▁районий	-10.9856
▁чемпионатында	-10.9856
▁миллиарда	-10.9859
▁Зап	-10.986
пин	-10.9863
▁компенсация	-10.9863
▁сформирован	-10.9863
▁соглашения	-10.9864
▁вокаль	-10.9864
▁показ	-10.9865
▁воин	-10.9865
▁учрежден	-10.9869
▁гроз	-10.9871
промышленной	-10.9874
▁русские	-10.9874
▁ноги	-10.988
има	-10.988
▁кәрәкмәй	-10.9881
аналитика	-10.9881
▁ҡаҙ	-10.9882
▁ғәйеп	-10.9883
▁(1983)	-10.989
▁строительстве	-10.989
▁ДТП	-10.989
▁Күргәҙмә	-10.989
▁торама	-10.9891
шедш	-10.9892
▁Имеет	-10.9892
ВА	-10.9893
▁Вәлиев	-10.9893
▁функциялы	-10.9895
▁Кир	-10.9897
уса	-10.9897
▁газа	-10.9898
әле	-10.99
▁собрал	-10.9901
канал	-10.9905
▁инициатива	-10.9905
▁составлен	-10.9906
өрө	-10.9912
▁осо	-10.9914
▁0,5	-10.9914
енность	-10.9915
▁проведет	-10.9917
▁ашығыс	-10.9917
▁заявки	-10.9917
▁таҡтаташ	-10.9917
▁етерлек	-10.9918
▁врио	-10.9918
▁практик	-10.9919
▁Эр	-10.992
▁осраҡ	-10.992
▁риск	-10.992
▁нашу	-10.9921
щу	-10.9923
редняя	-10.9924
телгән	-10.9929
цией	-10.993
▁мөмкинлектәрен	-10.9931
▁ойоштороусы	-10.9933
0,5	-10.9934
чиков	-10.9934
нская	-10.9941
▁Сибае	-10.9943
▁грамот	-10.9943
▁Ногайской	-10.9943
▁выиграл	-10.9944
▁действуют	-10.9944
▁арттырырға	-10.9944
▁процентын	-10.9947
культ	-10.9948
▁субсидия	-10.9953
▁яһап	-10.9953
▁пожаров	-10.9954
ЭС	-10.9955
▁Ор	-10.9957
▁хужалары	-10.996
▁режиссеры	-10.996
▁аҙым	-10.996
луж	-10.996
▁төҙөүселәр	-10.9964
▁чуваш	-10.9966
▁пенсионеров	-10.9969
▁125	-10.997
▁заведений	-10.997
▁дым	-10.997
▁Ниндәй	-10.997
▁разве	-10.9971
▁районной	-10.9971
▁корпорацияһы	-10.9972
▁Общая	-10.9972
▁стартуе	-10.9975
▁источник	-10.9977
стями	-10.9979
▁Значит	-10.998
▁ойошмаһының	-10.998
▁Президенте	-10.9983
▁тапты	-10.9983
▁биол	-10.9986
Кон	-10.9988
▁предстоящи	-10.9989
▁Семен	-10.9989
▁Народ	-10.9992
ҙарына	-10.9993
▁илебеҙ	-10.9993
▁1,1	-10.9994
▁аппараты	-10.9995
▁13-	-10.9996
▁хеҙмәттәшлекте	-10.9996
ro	-10.9997
▁продлится	-10.9997
▁ғибәрәт	-10.9997
▁Пусть	-10.9997
▁областей	-10.9999
▁республикаға	-11
▁Пер	-11.0002
▁берәмектәр	-11.0002
▁плеч	-11.0002
▁сәғәттә	-11.0003
▁(8	-11.0003
▁өлкәләрендә	-11.0003
▁металлов	-11.0004
▁планын	-11.0004
▁Ғәскәров	-11.0004
▁йүнәлеше	-11.0007
▁Тап	-11.001
▁тамырҙары	-11.001
▁ҡағиҙәләрен	-11.0011
▁йыя	-11.0013
▁ГИБДД	-11.0016
▁Пре	-11.0017
▁кому	-11.002
▁повышен	-11.0022
▁ҡысҡырҙы	-11.0022
▁молча	-11.0023
ӘЙ	-11.0023
▁переработки	-11.0023
▁мэр	-11.0025
▁урынлаштырылған	-11.0026
тдинов	-11.0027
▁август	-11.0028
▁уйлайым	-11.0028
▁мө	-11.003
▁хәле	-11.0032
▁музыкант	-11.0033
▁һорап	-11.0034
▁Ген	-11.0041
▁техникум	-11.0041
▁международном	-11.0043
▁хозяйстве	-11.0043
▁процесса	-11.0047
▁комплексында	-11.0048
греб	-11.0049
▁ради	-11.0051
▁йомшаҡ	-11.0051
▁баҫылып	-11.0052
жим	-11.0053
лаша	-11.0058
▁страховкалау	-11.0058
▁приют	-11.0061
▁Башгидромет	-11.0064
▁кавалер	-11.0065
▁коллектива	-11.0068
воль	-11.007
өрә	-11.0071
щих	-11.0072
пай	-11.0073
уҙы	-11.0075
▁...	-11.0077
▁масло	-11.0078
▁предприятии	-11.0079
▁церковь	-11.0079
▁тамамланған	-11.0079
▁Много	-11.0079
▁обращения	-11.008
▁билдәләп	-11.0081
▁темы	-11.0082
тре	-11.0083
▁наиб	-11.0084
▁переселен	-11.0085
▁наблюдается	-11.0085
▁ТАСС	-11.0087
▁ректоры	-11.0088
▁Ғарипов	-11.0089
холл	-11.0092
▁сарала	-11.0093
▁иҡтисады	-11.0095
▁Работа	-11.0095
ләнеү	-11.0102
▁китапханаһы	-11.0104
▁неск	-11.0105
▁профилактики	-11.0106
▁Сибайҙа	-11.0107
▁Борай	-11.0108
▁этапта	-11.0112
▁агроном	-11.0113
пова	-11.0116
▁үҙең	-11.0119
▁тән	-11.012
анные	-11.0121
▁молодежных	-11.0125
лаясаҡ	-11.013
▁боевы	-11.0131
▁подготовка	-11.0133
▁проректор	-11.0133
▁Сөнки	-11.0133
▁комбайн	-11.0133
▁реализуется	-11.0135
▁Было	-11.0136
▁киләсәктә	-11.0138
▁Хабирова	-11.0139
▁ҡуҙғал	-11.014
▁1948	-11.0141
иҙа	-11.0144
ировали	-11.0145
▁сәфәр	-11.0147
▁әсәй	-11.015
▁99	-11.0155
▁процесы	-11.0155
виг	-11.0156
▁Кавказ	-11.0158
▁увеличение	-11.0158
▁билдә	-11.0159
▁вошел	-11.0159
▁событий	-11.0161
▁ҡымыҙ	-11.0161
▁религ	-11.0161
▁Мур	-11.0161
▁зуб	-11.0161
▁еңде	-11.0161
▁үлгән	-11.0162
кай	-11.0162
▁айына	-11.0165
▁табын	-11.0165
чий	-11.0166
▁высокой	-11.0167
▁имам	-11.017
Па	-11.017
▁һыҙат	-11.0171
конференция	-11.0171
▁работала	-11.0172
▁98	-11.0173
▁Наил	-11.0173
әғәт	-11.0175
▁исполнение	-11.0176
▁приняты	-11.018
шем	-11.0181
▁долг	-11.0181
▁Юлдаш	-11.0182
ЕД	-11.0185
кино	-11.0185
▁обо	-11.0186
▁конкурент	-11.0187
▁медицинского	-11.0187
▁духов	-11.0188
▁училищеһын	-11.0188
▁Гүзәл	-11.0188
▁мәҙрәсә	-11.0188
▁геопарк	-11.0188
▁ҡысҡырып	-11.019
▁дополнительные	-11.019
▁большую	-11.019
ива	-11.0191
▁председателем	-11.0192
▁ҡыйыу	-11.0192
▁артистар	-11.0194
▁Серге	-11.0195
ПП	-11.0197
▁теҙ	-11.02
▁хоҡуғын	-11.0201
▁яҡшыраҡ	-11.0202
▁ҡанат	-11.0204
щим	-11.0205
егеҙҙе	-11.0206
инфекц	-11.0208
▁Кәримдең	-11.0209
▁билдәләре	-11.021
▁79	-11.0211
▁вед	-11.0211
▁Октябрьском	-11.0211
▁ДК	-11.0211
▁вуза	-11.0212
▁доходов	-11.0213
ыусы	-11.0213
▁участвовать	-11.0216
▁раҫланды	-11.0216
▁дежур	-11.0216
ТЫ	-11.0216
▁открылась	-11.0217
▁греч	-11.0217
▁граждандарға	-11.0217
▁уверен	-11.0219
▁тамамлаусылар	-11.0219
▁ХК	-11.0222
▁север	-11.0224
▁Карим	-11.0225
сек	-11.023
▁ресторан	-11.0231
▁организаторов	-11.0232
ильные	-11.0234
▁фотограф	-11.0235
▁ры	-11.0237
▁нур	-11.0241
▁Вьетнам	-11.0243
▁площадке	-11.0243
▁плав	-11.0244
▁хәүефе	-11.0244
▁узнать	-11.0246
▁дипломат	-11.0246
▁варианты	-11.0247
▁һөйөү	-11.0249
▁1933	-11.025
▁балаға	-11.0251
▁граф	-11.0252
▁ян	-11.0254
▁мяса	-11.0254
▁электронной	-11.0256
▁тирмә	-11.026
▁заявление	-11.026
▁йөҙөү	-11.026
▁аренд	-11.0265
▁напомнил	-11.0265
-2020	-11.0268
▁значения	-11.0271
били	-11.0271
▁көтөп	-11.0271
▁припуске	-11.0271
▁счастлив	-11.0271
аттар	-11.0272
▁внутренних	-11.0272
кәйне	-11.0273
▁Федоров	-11.0273
▁һынлы	-11.0273
▁советник	-11.0273
Халыҡ	-11.0273
▁Гай	-11.0273
▁перспективалары	-11.0273
▁нығы	-11.0275
▁Нижне	-11.0275
▁алышыу	-11.0276
▁Путина	-11.028
▁Комитет	-11.028
▁План	-11.0281
▁йыйына	-11.0281
жел	-11.0283
▁аңлай	-11.0285
ol	-11.0285
ира	-11.0286
▁хакимиәттәре	-11.0288
▁суда	-11.0289
▁максималь	-11.0292
шков	-11.0293
▁Казан	-11.0294
▁ашыуы	-11.0295
▁крови	-11.0295
▁йыйылышы	-11.0296
▁дух	-11.0297
▁мех	-11.0297
▁Ихтиандр	-11.0299
▁инглиз	-11.0299
▁нығыраҡ	-11.0299
▁автотранспорт	-11.03
жат	-11.0301
гран	-11.0302
▁планлаштыра	-11.0305
▁покуп	-11.0307
▁Рәсәйҙәге	-11.0308
▁училищеһы	-11.0308
▁ултырыш	-11.0311
▁ғалим	-11.0315
▁ҡоролмалар	-11.0315
▁естеств	-11.0315
▁коммерцияға	-11.0315
Санкт	-11.0316
▁боль	-11.032
лды	-11.032
▁төшөр	-11.0324
▁ҡуҙ	-11.0326
▁нарушения	-11.0327
▁Белоруссия	-11.0327
▁правил	-11.0327
▁Ҡазанда	-11.0327
ЫР	-11.0327
▁ырыу	-11.033
тая	-11.033
▁Хәмитовтың	-11.0333
▁стаж	-11.0338
▁примерно	-11.034
утдинов	-11.034
КЕ	-11.0341
гло	-11.0344
башҡорт	-11.0345
летней	-11.0345
ющим	-11.0348
▁ант	-11.0349
▁актриса	-11.0349
▁Әлегә	-11.0351
▁укр	-11.0351
▁ветер	-11.0353
▁колледжа	-11.0353
▁миҙалы	-11.0354
▁ноябрь	-11.0355
▁взять	-11.0356
▁насчитывается	-11.0356
▁күләмле	-11.0357
▁гражданин	-11.0358
▁ҡулланып	-11.0358
▁низко	-11.0359
▁кәмей	-11.0359
▁саңғы	-11.036
▁Цель	-11.036
сло	-11.036
▁участкалары	-11.0361
хлор	-11.0365
аева	-11.0367
▁прибыл	-11.0368
▁рев	-11.0368
▁жар	-11.037
▁прокурор	-11.0372
▁илдәрҙә	-11.0373
▁хозяин	-11.0383
▁Азии	-11.0383
▁халыҡтар	-11.0383
▁объеме	-11.0383
▁федеральной	-11.0386
▁ары	-11.0386
▁кандидаттар	-11.0388
▁АИ	-11.039
▁обнаружен	-11.0392
▁никах	-11.0393
▁һөҙөмтәһе	-11.0393
▁дуб	-11.0393
▁призы	-11.0393
▁бурысын	-11.0395
▁словно	-11.0395
▁(1979)	-11.0397
st	-11.0397
ҡулланма	-11.0397
▁нормы	-11.04
▁итеүе	-11.0401
▁атмосфер	-11.0402
▁ресурсы	-11.0403
▁ысулдарын	-11.0404
НЕ	-11.0404
▁аҡыл	-11.0404
▁вред	-11.0405
дәге	-11.0405
▁шеш	-11.0406
▁ултырҙы	-11.0409
▁РА	-11.041
ЗА	-11.0411
▁мероприятии	-11.0411
▁показателей	-11.0411
Развитие	-11.0411
▁һайланды	-11.0411
▁көсөнә	-11.0411
▁расходов	-11.0412
▁флот	-11.0413
Бал	-11.0413
здоров	-11.0414
▁эшһеҙлек	-11.0414
▁тыуҙы	-11.0416
▁төшөрҙө	-11.0418
прежнему	-11.0418
▁приобретение	-11.042
вшие	-11.042
▁указға	-11.0423
▁вруч	-11.0424
▁араһынан	-11.0425
▁маршруты	-11.0425
▁төҙ	-11.0425
▁почет	-11.0426
ялар	-11.0427
▁дорога	-11.0427
▁килтергән	-11.0433
▁именлек	-11.0436
вари	-11.0436
▁мебель	-11.0439
▁төшөп	-11.0439
цин	-11.044
▁встреч	-11.0441
▁Кан	-11.0441
▁операции	-11.0441
▁белгән	-11.0442
▁Аҙна	-11.0443
имся	-11.0445
▁урынлыҡ	-11.0446
▁1926	-11.0447
▁победу	-11.0451
▁подряд	-11.0453
▁предложен	-11.0454
▁скважин	-11.0454
ic	-11.0457
лыр	-11.0459
дай	-11.0461
▁марш	-11.0462
Йәшел	-11.0463
▁болезни	-11.0467
▁шунан	-11.0467
ЛО	-11.0468
нием	-11.0468
▁Туймазинского	-11.0468
▁рабочие	-11.047
▁написан	-11.047
▁необходимость	-11.0471
▁поликлиника	-11.0471
▁телдәрендә	-11.0472
▁горы	-11.0472
▁һай	-11.0473
8,5	-11.0475
▁заслуги	-11.0477
▁лидеров	-11.0479
ГУ	-11.0479
▁эксп	-11.0479
▁сараларында	-11.0479
▁прокат	-11.0481
▁Одно	-11.0484
▁81	-11.0486
лл	-11.0486
▁странах	-11.0487
▁кооператив	-11.0487
▁Сын	-11.0487
▁кабинеты	-11.0488
▁пропагандалау	-11.0488
Граждан	-11.0492
▁полкы	-11.0493
,1%	-11.0493
ывает	-11.0493
няк	-11.0494
▁паркында	-11.0495
▁ойошторҙо	-11.0495
▁современной	-11.0495
▁кумыс	-11.0496
вался	-11.0497
▁күл	-11.0497
▁решить	-11.0498
▁1949	-11.0503
▁сығышы	-11.0503
▁мороз	-11.0503
▁Сар	-11.0506
▁молодым	-11.0508
▁селтәр	-11.0508
▁татары	-11.0508
▁булыуына	-11.0511
▁тулыуға	-11.0511
▁Потом	-11.0511
ir	-11.0511
лашыу	-11.0513
▁головой	-11.0515
монтаж	-11.0518
ложения	-11.0519
▁соед	-11.0519
▁формате	-11.0523
▁случай	-11.0523
▁дебют	-11.0524
Мортазин	-11.0524
уҡ	-11.0524
▁Корея	-11.0524
▁керҙәшлек	-11.0525
▁партияһының	-11.0525
▁концу	-11.0525
▁гер	-11.0525
▁пара	-11.0525
▁булдырылды	-11.0525
▁агентлыҡ	-11.0526
прокомментировал	-11.0529
▁делегат	-11.0529
▁коронавируса	-11.053
▁килеме	-11.0532
▁1,7	-11.0534
▁Сафин	-11.0537
ируем	-11.0538
▁совхоз	-11.0539
▁декабрендә	-11.0543
▁өҫтә	-11.0544
▁применение	-11.0547
здрав	-11.0549
▁күпкә	-11.055
▁ауырлығы	-11.0551
▁Альбина	-11.0552
▁ҡушыла	-11.0552
▁Ильшат	-11.0553
▁Һуңынан	-11.0553
▁ученые	-11.0553
▁проводились	-11.0553
▁Пар	-11.0554
▁әкиәт	-11.0554
▁объединений	-11.0555
▁центром	-11.0556
▁зоны	-11.0556
▁оҫталары	-11.0557
▁ярыштары	-11.0561
ставил	-11.0564
▁Мария	-11.0565
▁длинн	-11.0567
лыҡтары	-11.0569
льников	-11.0577
▁БА	-11.0577
▁технологияларын	-11.0579
▁форму	-11.058
▁каучук	-11.0581
▁спортивные	-11.0581
▁шикһеҙ	-11.0582
▁диагностикалау	-11.0584
▁Тәбиғәттә	-11.0584
▁Заки	-11.0585
▁международной	-11.0588
стран	-11.0588
▁шәхес	-11.0588
▁реестр	-11.0589
.“	-11.0589
▁появились	-11.059
эш	-11.0591
▁Мари	-11.0592
ta	-11.0593
ице	-11.0594
,9%	-11.0596
▁прод	-11.0596
▁уточнили	-11.06
▁экон	-11.06
бөтәһе	-11.0606
▁сәғәткә	-11.0606
▁видел	-11.0608
▁горожан	-11.0609
▁вышли	-11.061
▁ашыра	-11.0612
as	-11.0613
▁94	-11.0615
—17	-11.0618
▁апреле	-11.0618
истые	-11.062
Бар	-11.062
ЛАР	-11.0621
▁биналар	-11.0621
▁русских	-11.0622
▁Теге	-11.0623
СО	-11.0626
▁получен	-11.0628
▁дисциплина	-11.0628
▁июлендә	-11.0628
март	-11.0629
▁округтары	-11.063
стях	-11.0633
▁существ	-11.0633
▁лауреаттары	-11.0633
ҙарының	-11.0635
▁известные	-11.0635
▁воздух	-11.0636
▁Зөһрә	-11.0638
▁Площадь	-11.0638
▁мөгәзәй	-11.0638
▁көрән	-11.0638
▁интерактив	-11.0638
Беҙҙең	-11.0639
ившись	-11.0639
▁ташҡын	-11.0639
▁родители	-11.0639
▁кл	-11.064
ивается	-11.0643
▁однако	-11.0643
▁представили	-11.0645
йте	-11.0652
мө	-11.0652
эс	-11.0654
▁бокс	-11.0654
▁методов	-11.0655
Иш	-11.0655
▁(1943)	-11.0656
▁живот	-11.0656
▁юғал	-11.0657
▁кост	-11.0657
учить	-11.0659
▁бөтөр	-11.0659
▁министерства	-11.066
курорт	-11.066
▁Старо	-11.066
▁Завод	-11.0664
▁нашли	-11.0665
▁үрсе	-11.0667
▁боҙлауыҡ	-11.0667
▁воспитания	-11.0667
▁Краснокама	-11.0667
▁ознакомиться	-11.0669
▁связь	-11.0669
▁агентлығының	-11.0669
▁Петров	-11.0674
▁гранттар	-11.0675
оказания	-11.0676
УЛ	-11.0677
▁1928	-11.0677
▁Уҡыу	-11.068
▁хужалығын	-11.068
▁обратно	-11.0681
▁понял	-11.0684
▁Шар	-11.0687
шко	-11.0689
▁октябрь	-11.069
▁режимы	-11.069
слы	-11.0693
▁мәктәпкә	-11.0694
▁отличнигы	-11.0696
▁перенос	-11.0696
▁поскольку	-11.0696
▁господин	-11.0696
▁избирателей	-11.0696
▁күтәрелде	-11.0696
▁дипломдар	-11.0697
2)	-11.0697
▁уфимских	-11.0698
▁глин	-11.0698
деев	-11.0699
▁билдәләргә	-11.0701
▁Назван	-11.0702
▁пусть	-11.0702
▁численность	-11.0703
▁иметь	-11.0703
▁высш	-11.0704
гы	-11.0706
ылыу	-11.0706
▁етәксе	-11.0708
▁НИИ	-11.0708
▁Саф	-11.0712
▁ҡурҡ	-11.0714
▁руках	-11.0714
▁91	-11.0715
▁районына	-11.0717
▁үҙгәр	-11.0717
▁явля	-11.0718
▁индивидуаль	-11.0719
дача	-11.072
АНОВ	-11.0722
▁осор	-11.0722
лод	-11.0722
▁издание	-11.0722
знание	-11.0724
вших	-11.0725
▁гарнизон	-11.0725
▁состояния	-11.0725
▁разработки	-11.0725
▁Балтас	-11.0725
▁иҫтәлегенә	-11.0725
▁протокол	-11.0725
▁яғыулығы	-11.0725
▁Айгуль	-11.0725
▁Мелеузовского	-11.0725
▁взнос	-11.0726
▁дес	-11.0727
▁ҡапҡа	-11.0729
▁пьеса	-11.0729
▁Айгөл	-11.0729
▁предоставления	-11.0729
▁основные	-11.0733
▁кристалл	-11.0734
▁идут	-11.0735
▁ауырлыҡ	-11.0737
рост	-11.0737
ходить	-11.0737
▁норм	-11.0742
▁Яҡын	-11.0742
▁чист	-11.0742
▁увидел	-11.075
Көньяҡ	-11.075
▁перевоз	-11.0751
▁небо	-11.0751
абл	-11.0752
▁библиотеки	-11.0753
▁внедрены	-11.0753
ПО	-11.0753
▁Евразии	-11.0754
▁сопровожда	-11.0754
▁бәлки	-11.0754
▁сможет	-11.0754
ельная	-11.0754
▁частных	-11.0754
▁үҙгәртеү	-11.0754
ектор	-11.0756
▁батырлығы	-11.0757
▁тотондо	-11.0757
▁далеко	-11.0757
▁һаҡлауға	-11.076
▁белергә	-11.0761
▁ну	-11.0762
3,7	-11.0763
▁яҙыусылар	-11.0765
ләрен	-11.0765
бес	-11.0766
▁ноябре	-11.0766
▁располага	-11.0767
▁органдарына	-11.0774
һәм	-11.0776
▁фабрика	-11.078
охо	-11.078
▁йыллығын	-11.0781
▁средне	-11.0783
▁стимул	-11.0783
▁вакцинация	-11.0783
▁ваҡытҡа	-11.0783
▁площадей	-11.0783
▁пределах	-11.0783
▁нарко	-11.0783
▁Волгоград	-11.0783
▁поселения	-11.0783
▁будущем	-11.0783
▁пройти	-11.0783
аясь	-11.0785
▁алмаш	-11.0787
яют	-11.0788
▁педагогик	-11.0789
▁ситтән	-11.079
▁1931	-11.079
▁открытии	-11.0791
▁пан	-11.0792
▁килергә	-11.0793
реконструкциялау	-11.0794
әхмәт	-11.0797
▁әйлән	-11.0798
▁акт	-11.0799
▁Государственн	-11.0799
▁тораҡ	-11.0801
▁аналогичны	-11.0803
▁направлены	-11.0803
▁заявка	-11.0803
▁временно	-11.081
▁ҡуш	-11.0812
▁БДМИ	-11.0812
▁хлебозапасны	-11.0812
▁зрения	-11.0812
▁зонаһында	-11.0813
▁победители	-11.0813
▁океан	-11.0813
▁приехали	-11.0815
▁летом	-11.0816
▁высокий	-11.0817
▁йәштәрҙе	-11.0817
▁(1988)	-11.0818
▁крае	-11.0819
-2015	-11.082
▁золото	-11.082
нула	-11.0821
▁традиц	-11.0823
▁импорт	-11.0826
▁губ	-11.0827
▁занимается	-11.0828
раб	-11.0829
▁бинаһы	-11.0829
▁ултырт	-11.083
▁предприятиями	-11.083
ӘК	-11.083
▁весенне	-11.0831
▁портале	-11.0832
физ	-11.0836
▁аңлатты	-11.0836
гиб	-11.084
▁Китап	-11.0841
эл	-11.0841
▁отпуск	-11.0841
▁губернаһы	-11.0841
▁БГМИ	-11.0842
▁конфликт	-11.0842
▁творческие	-11.0842
▁ғилеме	-11.0842
▁Геннади	-11.0842
▁Белогорск	-11.0842
▁востребован	-11.0842
вшая	-11.0843
илов	-11.0843
▁популярлаштырыу	-11.0843
▁началось	-11.0844
▁губернаторы	-11.0845
▁смогли	-11.0846
ҡолов	-11.0847
▁сеть	-11.0848
▁Васильев	-11.0849
▁директором	-11.0849
▁волонтер	-11.0852
▁үҫемлектәрҙең	-11.0853
ылыуы	-11.0854
▁пункттары	-11.0856
▁спин	-11.0857
▁элемент	-11.0858
▁атаман	-11.086
▁увеличить	-11.086
▁туда	-11.0861
▁монтаж	-11.0861
▁Представител	-11.0864
шул	-11.0864
▁набор	-11.0867
▁призван	-11.0868
зал	-11.0868
Бабич	-11.0868
▁враг	-11.0869
пон	-11.087
ләш	-11.087
▁участки	-11.0871
▁эҙләй	-11.0872
▁икенсеһе	-11.0872
▁райондың	-11.0873
▁ветра	-11.0875
▁ед	-11.0876
▁мәктәптәрендә	-11.0877
оксид	-11.0877
▁көндән	-11.088
веч	-11.0882
▁тыңла	-11.0882
одно	-11.0883
▁ҡуйырға	-11.0883
▁хаҡына	-11.0884
▁работой	-11.0884
▁һүҙҙәренә	-11.0884
▁Кешеләр	-11.0887
▁чисто	-11.0891
уров	-11.0892
Давлет	-11.0892
▁плен	-11.0893
▁мам	-11.0893
▁Сал	-11.0894
▁монастыр	-11.0896
ством	-11.0896
▁Белгестәр	-11.0901
ниц	-11.0903
Фор	-11.0905
▁кадастр	-11.0906
▁малых	-11.0907
▁һүҙҙәрен	-11.0907
▁урамдары	-11.0907
щей	-11.0908
▁Гри	-11.0909
▁Уй	-11.0912
ебеҙҙең	-11.0914
Ҡурай	-11.0915
▁иҫән	-11.0917
ауыл	-11.0919
ҙыр	-11.0919
легенә	-11.092
▁ҡоролмалары	-11.0923
▁яҡтар	-11.0925
цу	-11.0926
▁имена	-11.0927
▁секундын	-11.0928
▁грантов	-11.0928
▁спортивной	-11.0929
▁ҡаплау	-11.0929
▁программаларын	-11.0929
▁новым	-11.0929
▁ҡурҡыныс	-11.093
▁Накануне	-11.093
анова	-11.093
▁хуш	-11.0931
▁ҡалаларҙа	-11.0934
▁поставил	-11.0935
хин	-11.0939
▁родного	-11.0939
▁Эл	-11.094
▁бүлектәре	-11.0941
▁погов	-11.0942
▁һирәгерәк	-11.0943
нской	-11.0943
▁зафиксировано	-11.0944
▁кодекс	-11.0946
изо	-11.0948
—40	-11.0949
еева	-11.095
▁Госкомитет	-11.0951
▁уйындар	-11.0957
▁законға	-11.0957
-2015»	-11.0957
▁килтер	-11.0957
▁учитыва	-11.0958
ОЙ	-11.0959
▁диагноз	-11.096
▁нәфис	-11.096
▁дефицит	-11.096
▁Техник	-11.096
://	-11.096
Вол	-11.0961
▁очерк	-11.0961
ғандар	-11.0961
—2	-11.0962
кет	-11.0963
▁спрос	-11.0963
▁ысынлап	-11.0963
▁япраҡлы	-11.0964
▁ултыртыу	-11.0966
Ауыл	-11.0966
каев	-11.0968
▁июн	-11.0968
▁Ҡул	-11.0969
▁алыусылар	-11.0971
шив	-11.0971
▁камер	-11.0972
▁товары	-11.0972
▁кампания	-11.0972
▁уҡыуҙа	-11.0973
▁мама	-11.0974
▁показали	-11.0975
▁велик	-11.0977
▁экологически	-11.0978
кен	-11.0978
▁собор	-11.098
▁практика	-11.098
▁предусмотрен	-11.0981
▁Жан	-11.0983
▁руководство	-11.0984
▁статистик	-11.0985
ырбыҙ	-11.0986
▁Где	-11.0986
▁служба	-11.0986
▁механизмы	-11.0987
▁правила	-11.0988
▁эшмәкәрлегенең	-11.0988
4,5	-11.0989
▁(1970)	-11.0989
▁Рафаэль	-11.099
▁тапшырырға	-11.099
▁ҡысҡыр	-11.099
▁Финал	-11.0991
сылкой	-11.0994
▁местности	-11.0998
неп	-11.0999
▁етәкләй	-11.1001
▁Ниж	-11.1001
▁инвестиционной	-11.1003
▁номинациях	-11.1004
▁регистр	-11.1004
▁межрегиональн	-11.1005
▁дуҫлыҡ	-11.1005
▁(9	-11.1006
▁персонал	-11.1007
▁охра	-11.1007
▁музейында	-11.1009
▁оркестра	-11.101
айт	-11.101
жение	-11.101
▁ҡасаба	-11.1012
▁1,4	-11.1012
▁Такие	-11.1012
майынса	-11.1014
▁миҙалдар	-11.1015
▁бил	-11.1015
ЕЛЬ	-11.1018
▁итогов	-11.1018
▁сегмент	-11.1019
▁красавиц	-11.102
▁митинг	-11.102
▁93	-11.1021
▁отмен	-11.1021
стру	-11.1021
▁корол	-11.1021
2,8	-11.1023
нефт	-11.1023
▁состоятся	-11.1024
▁КУ	-11.1024
▁башлаясаҡ	-11.1025
▁титул	-11.1026
▁базы	-11.1027
▁Дон	-11.1027
▁аул	-11.1027
▁душ	-11.1027
▁түләнә	-11.1027
▁пришел	-11.1032
образовательных	-11.1032
▁шиғырҙар	-11.1037
дәргә	-11.104
▁серияһы	-11.1041
▁рез	-11.1043
▁жителями	-11.1045
оги	-11.1045
▁буй	-11.1046
▁пир	-11.1046
▁изделиелары	-11.1046
учи	-11.1047
▁кафедраһы	-11.1047
os	-11.1048
▁лечение	-11.1049
▁меч	-11.1049
▁девяти	-11.1049
▁Абзелиловского	-11.1049
▁Тәфтиш	-11.1049
▁супруг	-11.1051
Ҡыҙыл	-11.1051
▁международный	-11.1053
▁проспект	-11.1057
бед	-11.1058
▁образованием	-11.1058
Бу	-11.1059
рег	-11.1059
ечен	-11.1061
▁ташлама	-11.1062
▁третьем	-11.1063
▁туры	-11.1064
▁туйы	-11.1069
▁данной	-11.107
▁построить	-11.107
▁ағым	-11.1071
▁Были	-11.1072
цеп	-11.1075
▁возник	-11.1076
▁конференц	-11.1078
▁БГАУ	-11.1079
▁денег	-11.1079
▁деревья	-11.1079
▁развивается	-11.108
▁обраща	-11.1084
▁хәлгә	-11.1088
▁определены	-11.1091
▁саҡыралар	-11.1091
▁симфоник	-11.1091
Ор	-11.1095
▁үҙәген	-11.1096
▁субботник	-11.1097
▁Салавату	-11.1099
сирот	-11.1101
▁любовь	-11.1103
▁учреждениеларын	-11.1103
▁ҡотҡар	-11.1104
▁горе	-11.1106
▁300-	-11.1106
▁приехал	-11.1107
▁ХХ	-11.1107
юль	-11.1108
▁Кандидат	-11.111
▁Рудольф	-11.111
▁помощник	-11.111
▁булғас	-11.111
▁төҙөгән	-11.1111
▁аҫҡы	-11.1111
▁гәз	-11.1112
▁хоз	-11.1112
▁түшә	-11.1112
▁зимни	-11.1112
▁ғүмере	-11.1113
зелен	-11.1113
СП	-11.1113
▁этник	-11.1113
▁Трудово	-11.1114
▁народные	-11.1115
▁Баймакском	-11.1118
▁кимәленә	-11.1119
▁заинтересова	-11.1119
▁Ленар	-11.1122
▁дед	-11.1124
▁работало	-11.1124
▁ҡото	-11.1128
▁смог	-11.113
Родина	-11.1131
▁архитектуры	-11.1133
▁открыл	-11.1137
руп	-11.1137
▁дву	-11.1138
▁населенны	-11.1139
▁ЮХХДИ	-11.114
▁перечень	-11.114
▁телевидения	-11.114
рол	-11.1141
▁укрепления	-11.1142
▁достойно	-11.1144
▁абсолют	-11.1145
▁полезны	-11.1146
▁всему	-11.1147
▁Мороз	-11.1148
▁наградалар	-11.1148
▁Миәкә	-11.1148
чек	-11.1149
um	-11.115
▁связанные	-11.115
▁тоҡомдары	-11.1151
▁аналог	-11.1156
▁органдарының	-11.1157
▁ярҙамсыһы	-11.1157
▁менеджер	-11.1157
▁праздники	-11.1158
▁иртәгә	-11.1158
▁осоу	-11.1159
▁календар	-11.116
Заки	-11.116
▁Сагитов	-11.1161
кров	-11.1168
▁Вас	-11.1169
▁зависит	-11.117
▁наличие	-11.117
▁сағылыш	-11.1171
▁лексик	-11.1171
▁Организатор	-11.1172
▁хөрмәтенә	-11.1174
▁пчел	-11.1175
▁различные	-11.1176
▁процедур	-11.118
▁оҫталығы	-11.1181
ухов	-11.1182
баҡ	-11.1182
▁шәхестәр	-11.1183
▁күңелле	-11.1185
ri	-11.1186
▁крәҫтиәндәре	-11.1187
лига	-11.119
УС	-11.1192
▁спикер	-11.1193
▁ТВ	-11.1195
▁килмәй	-11.1198
▁яртыһы	-11.1199
▁нужд	-11.12
▁иҫәптә	-11.12
Аҡбуҙат	-11.12
▁Билдәле	-11.12
▁Поллианна	-11.12
▁булмаһа	-11.1201
▁СНГ	-11.1201
▁төҫлө	-11.1201
▁көнлөк	-11.1202
▁килешеп	-11.1204
▁1,8	-11.1204
▁Әмир	-11.1204
▁ҡотлау	-11.1205
лде	-11.1205
▁Гл	-11.1205
▁тәрбиәләнеүсеһе	-11.1207
зил	-11.1208
оцен	-11.1209
▁тамамланы	-11.121
▁парков	-11.1211
Пол	-11.1211
Петербурга	-11.1212
истья	-11.1213
9,5	-11.1214
▁мәғарифы	-11.1214
▁креп	-11.1215
▁привел	-11.1216
лығына	-11.1218
▁минимума	-11.1218
▁камера	-11.1219
▁двое	-11.1221
тим	-11.1221
▁1,6	-11.1222
▁внутр	-11.1223
инт	-11.1223
▁мероприятиях	-11.1225
▁Международном	-11.1226
фин	-11.1228
▁культуралар	-11.1229
▁бюро	-11.1231
▁Бишбүләк	-11.1231
▁дирижер	-11.1231
▁продюсер	-11.1231
▁шахмат	-11.1231
▁предлагает	-11.1231
▁бөткән	-11.1232
▁биҫтәһендә	-11.1232
труд	-11.1232
▁Гол	-11.1233
▁тыуҙыра	-11.1233
зап	-11.1233
тамаҡ	-11.1233
▁шиғыр	-11.1234
сыларға	-11.1236
иста	-11.1236
▁мәшғүллек	-11.1238
▁вышла	-11.1238
▁Әй	-11.1238
▁возложен	-11.1239
▁машинаһы	-11.1239
▁вещества	-11.1241
▁маҡсат	-11.1242
▁үткәреүгә	-11.1243
холле	-11.1247
▁бүлә	-11.1247
▁строить	-11.1248
▁хә	-11.1251
▁халыҡтарҙың	-11.1253
▁лице	-11.1254
▁необходим	-11.1255
▁поток	-11.1255
блок	-11.1258
▁булдыра	-11.1258
Акбузат	-11.1262
▁берәмеге	-11.1262
▁рельеф	-11.1262
▁үҙгәртеп	-11.1262
▁ултырма	-11.1262
▁смысл	-11.1264
Запад	-11.1266
▁Янаул	-11.1267
-16	-11.1268
▁рациональ	-11.1272
▁төбәктәренең	-11.1273
▁мужчина	-11.1273
▁попал	-11.1274
▁входили	-11.1274
▁агропромышленно	-11.1276
▁төбәктәренән	-11.1277
ированы	-11.1279
▁ҡола	-11.128
▁ҡаҙы	-11.1285
▁улдары	-11.1286
▁интер	-11.1286
▁Уларға	-11.1288
▁пуст	-11.1292
▁предыдущ	-11.1292
▁апрелгә	-11.1292
▁прожиточно	-11.1292
▁Основны	-11.1293
▁субсидиялар	-11.1294
▁һөйләшеп	-11.1294
▁корреспондент	-11.1294
▁1500	-11.1295
Это	-11.1296
нимались	-11.1296
▁моей	-11.1299
тәрендә	-11.1302
▁воду	-11.1303
▁перемен	-11.1309
▁Мус	-11.1309
▁термо	-11.1312
▁стиле	-11.1313
▁ҡыуаҡ	-11.1315
▁вырос	-11.1317
▁Былар	-11.1317
▁журналисты	-11.1318
▁главных	-11.1318
▁проводят	-11.1319
▁Благовещенск	-11.132
▁действовал	-11.1321
өнө	-11.1322
2,5	-11.1322
▁квалификации	-11.1323
▁күпселеге	-11.1323
▁Думы	-11.1323
▁мел	-11.1325
▁яҡлап	-11.1326
▁Даже	-11.1327
▁гражданлыҡ	-11.1327
Заслуженны	-11.1327
▁Минсельхоз	-11.1328
▁основная	-11.133
▁основной	-11.133
▁сал	-11.1331
работать	-11.1332
▁знания	-11.1334
дели	-11.1334
▁билдәләнеләр	-11.1337
▁аллы	-11.1339
ложить	-11.134
▁капиталы	-11.134
▁Три	-11.134
▁Обще	-11.1341
▁отбор	-11.1342
▁телле	-11.1344
▁доля	-11.1347
▁килер	-11.1347
▁тартыу	-11.1348
▁потенциала	-11.1348
▁дорогу	-11.135
ируются	-11.1351
Тур	-11.1352
строения	-11.1354
▁кампании	-11.1354
▁кирпич	-11.1354
▁ребенок	-11.1354
▁редакции	-11.1354
лёт	-11.1354
оваться	-11.1354
▁составляют	-11.1354
▁утвердил	-11.1354
▁оснащен	-11.1355
▁күтәреп	-11.1355
▁основ	-11.1355
▁кәрәклеге	-11.1357
▁затрат	-11.1357
▁өлгөрә	-11.1357
▁репертуар	-11.1358
▁асылы	-11.136
▁дипломант	-11.1361
▁души	-11.1361
гөл	-11.1362
▁ярҙамға	-11.1362
▁цветов	-11.1364
▁плата	-11.1364
▁строй	-11.1368
▁декабрь	-11.1369
▁майында	-11.1369
уется	-11.137
▁Род	-11.1373
усь	-11.1375
▁ағымы	-11.1375
▁башкирская	-11.1377
техническ	-11.138
▁карбонат	-11.138
▁чрезвычайн	-11.1382
▁доходы	-11.1384
▁душу	-11.1384
▁(1967)	-11.1385
▁жертв	-11.1385
▁МТС	-11.1385
▁магистраль	-11.1386
▁(2012)	-11.1386
▁обеспечению	-11.1387
▁отметить	-11.1387
▁герой	-11.1387
▁феврале	-11.1388
▁тамашасы	-11.1389
▁секунд	-11.1389
▁смена	-11.139
▁начинается	-11.1391
Бик	-11.1392
▁1947	-11.1393
▁алкоголь	-11.1394
▁формалары	-11.1394
▁системаһының	-11.1397
шер	-11.1398
▁журналистары	-11.1399
3,4	-11.1401
▁юрист	-11.1402
▁студияһы	-11.1403
▁юлдарын	-11.1406
меняется	-11.1408
▁етештерә	-11.1409
▁структуры	-11.1409
угл	-11.141
▁Япония	-11.1411
▁әйләнә	-11.1415
▁администраций	-11.1416
▁болезней	-11.1416
▁ентекле	-11.1416
▁людьми	-11.1416
▁грунт	-11.1416
▁оценки	-11.1416
▁күңеле	-11.1417
▁поднял	-11.1417
кварц	-11.1417
▁операторы	-11.1417
рҙең	-11.1418
▁Фәрит	-11.1419
▁редко	-11.1419
▁Кол	-11.142
▁Интернет	-11.1421
▁ғәмәлдәге	-11.1421
▁арба	-11.1423
▁1923	-11.1424
▁участник	-11.1424
лдә	-11.1425
▁Советының	-11.1432
▁Казань	-11.1432
▁будущи	-11.1435
▁колон	-11.1437
▁баҙары	-11.1438
▁посл	-11.1438
▁красно	-11.1439
▁Акмуллы	-11.1443
▁беләм	-11.1445
▁долларов	-11.1447
▁Ҡыйғы	-11.1447
▁девушки	-11.1447
▁дверь	-11.1448
▁күсерелә	-11.1448
▁едино	-11.1448
▁һалырға	-11.1449
▁комфорт	-11.1449
▁үҙенсәлектәрен	-11.1449
▁собств	-11.1451
▁үткәргән	-11.1451
▁Без	-11.1452
▁инструменталь	-11.1452
▁шла	-11.1453
сервис	-11.1453
▁награждены	-11.1453
комплекс	-11.1454
▁Плод	-11.1454
байрам	-11.1456
▁дать	-11.1456
▁актов	-11.1456
▁бюллетен	-11.1458
▁воспитыва	-11.1459
▁составили	-11.1459
▁220	-11.1459
▁порталында	-11.146
▁рубежом	-11.1461
▁рәссамы	-11.1461
цияһы	-11.1461
▁мотор	-11.1464
▁ламп	-11.1464
▁вперед	-11.1465
ывал	-11.1467
▁тигәндә	-11.1467
▁фито	-11.1468
рио	-11.1471
▁общем	-11.1475
УК	-11.1475
▁Мәжит	-11.1476
▁патологи	-11.1476
▁крыш	-11.1476
▁улиц	-11.1477
▁Бары	-11.1478
▁Административ	-11.1478
▁созыва	-11.1479
▁ирекмәндәр	-11.1479
▁ҡайын	-11.148
▁Новости	-11.1483
ивает	-11.1485
▁(11	-11.1486
▁больнице	-11.1488
щая	-11.1488
▁мулла	-11.1489
▁направил	-11.1491
чист	-11.1492
▁оҫта	-11.1494
▁редакция	-11.1494
▁Рима	-11.1494
▁серия	-11.1495
▁любит	-11.1499
▁тырыша	-11.1499
▁фронты	-11.15
▁Алтай	-11.1501
▁груз	-11.1505
▁майҙансыҡтары	-11.1507
▁комиссариат	-11.151
химик	-11.151
▁Һарытау	-11.151
▁майҙанында	-11.1511
▁дизайн	-11.1511
▁аръяғында	-11.1512
▁забот	-11.1513
▁обсужда	-11.1514
▁праздником	-11.1515
▁домах	-11.1515
▁товарищ	-11.1516
строитель	-11.1517
▁жилищных	-11.1518
юных	-11.1519
торҙар	-11.152
▁педагогического	-11.152
тул	-11.1524
тоимость	-11.1526
банк	-11.1526
▁ултырышта	-11.1528
▁устав	-11.1529
▁ирек	-11.1529
ходится	-11.1531
▁йыйын	-11.1532
▁хужаһы	-11.1533
▁развивать	-11.1533
▁үҫешен	-11.1534
▁Числ	-11.1536
▁документа	-11.1539
▁Многие	-11.1541
▁дивизии	-11.1541
▁прошедши	-11.1541
әйеп	-11.1542
▁йортоноң	-11.1543
▁комитетында	-11.1543
▁эйе	-11.1544
нув	-11.1544
▁өлөшөнә	-11.1546
солоҡ	-11.1547
▁Октябрьского	-11.1548
▁мастерства	-11.1548
дл	-11.155
▁Мол	-11.1553
НОВ	-11.1554
▁показать	-11.1557
▁Аҡса	-11.1558
▁китабына	-11.1562
▁экономике	-11.1563
▁булмаҫ	-11.1565
▁ра	-11.1566
▁тирәһендә	-11.1572
тәүгә	-11.1572
ище	-11.1572
Каустик	-11.1573
родопользования	-11.1573
▁Дружбы	-11.1573
▁зданий	-11.1573
▁промышленных	-11.1573
▁знать	-11.1573
▁Георгий	-11.1573
кала	-11.1574
▁Әллә	-11.1575
опер	-11.1576
Исмагилов	-11.1579
▁минерал	-11.1579
▁полном	-11.1582
▁апрелдән	-11.1584
▁ваҡытын	-11.1584
▁сосед	-11.1587
▁региональном	-11.1588
ләштерелгән	-11.1589
▁декоратив	-11.1591
▁әйткән	-11.1592
▁уларҙан	-11.1592
▁лед	-11.1593
▁инициатор	-11.1594
▁матем	-11.1595
▁итәбеҙ	-11.1596
стил	-11.1596
▁продолжает	-11.1599
▁отмечен	-11.1599
▁метрға	-11.16
кнул	-11.1602
▁ҡаҙаҡ	-11.1603
▁большинство	-11.1604
МАН	-11.1604
▁көрәше	-11.1605
▁погоды	-11.1606
▁Нуриев	-11.1606
▁ҡойма	-11.1608
▁Ев	-11.1608
▁округының	-11.1608
▁счита	-11.161
▁съе	-11.1611
▁китергә	-11.1613
▁районных	-11.1613
▁экскурсия	-11.1614
▁оҙатыу	-11.1615
▁нәшриәте	-11.1615
▁төбәктәрҙә	-11.1615
▁күҙҙәре	-11.162
▁салон	-11.1621
▁коммерция	-11.1621
▁военной	-11.1625
▁дочь	-11.1626
▁Федерацияһында	-11.1633
800	-11.1634
вшийся	-11.1636
▁имен	-11.1636
▁биҙәлгән	-11.1636
▁(1972)	-11.1637
▁моделе	-11.1637
▁провинции	-11.1637
нур	-11.164
▁тело	-11.164
сит	-11.164
▁уме	-11.164
▁280	-11.1643
▁ойошмаларының	-11.1645
▁президента	-11.1647
чков	-11.1648
АЛЬ	-11.1648
▁телдәре	-11.1648
шоу	-11.1648
▁праздновани	-11.1649
▁высоки	-11.165
▁алғы	-11.165
ацией	-11.165
▁автобустар	-11.1651
▁бог	-11.1652
Восток	-11.1652
шек	-11.1653
региональной	-11.1656
▁отделе	-11.1657
ТУ	-11.1658
▁молодежь	-11.1661
▁гарантия	-11.1662
▁каза	-11.1663
▁112-	-11.1666
▁кирбес	-11.1668
▁приобрести	-11.1668
▁буйһон	-11.1668
▁подарки	-11.1669
▁ограниченным	-11.167
▁действительно	-11.1671
▁Әл	-11.1671
▁булдырыуға	-11.1672
ҙө	-11.1673
▁еже	-11.1676
коло	-11.1678
▁Эксперт	-11.1678
фермер	-11.1679
▁владел	-11.1681
▁Затон	-11.1682
лению	-11.1682
▁суды	-11.1686
el	-11.1689
▁печат	-11.1689
▁ҡыйын	-11.1689
▁ҡомартҡылары	-11.1691
▁тир	-11.1691
▁судья	-11.1692
▁имеется	-11.1693
▁һүҙҙәре	-11.1694
▁ваҡытынан	-11.1695
▁Сабир	-11.1697
▁нарушений	-11.17
▁красоты	-11.17
▁Через	-11.1701
▁төҫ	-11.1702
▁остались	-11.1702
▁Алдарбай	-11.1703
▁Всероссийский	-11.1703
▁дождь	-11.1706
-6	-11.1708
▁беренселеге	-11.171
опыт	-11.1713
мут	-11.1716
▁рул	-11.1717
гир	-11.172
▁фон	-11.1722
▁открыты	-11.1723
▁олимпиада	-11.1724
▁налог	-11.1725
▁считают	-11.1726
▁Президентом	-11.1726
▁эшһеҙ	-11.1726
▁оба	-11.1727
▁(2008)	-11.1727
▁подумал	-11.173
▁молекуляр	-11.1732
▁күмер	-11.1732
▁протяжении	-11.1732
▁художественный	-11.1732
▁кәмерәк	-11.1733
▁берләшмәләре	-11.1733
▁таныштырыу	-11.1733
▁начать	-11.1734
▁актуаль	-11.1735
▁общественные	-11.1735
▁журналистика	-11.1735
▁фонтан	-11.1736
▁Михайлов	-11.1737
▁һуғышта	-11.1737
▁Ҡатнашыусылар	-11.1739
▁выпуска	-11.1739
▁килеүселәр	-11.174
▁чиновник	-11.1741
▁повесы	-11.1741
цам	-11.1743
друж	-11.1743
ющихся	-11.1743
▁хирургия	-11.1746
▁зем	-11.1746
▁гастрол	-11.1748
▁яҙы	-11.1755
▁Тай	-11.1755
АД	-11.1755
-21	-11.1756
▁гриппа	-11.1761
зада	-11.1763
шып	-11.1764
▁ғәрәп	-11.1764
▁источников	-11.1764
▁инновация	-11.1766
▁законом	-11.1768
▁кәңәшмәһендә	-11.1769
▁үҙҙәрен	-11.1769
▁торговых	-11.177
▁ултырыу	-11.177
▁инергә	-11.1772
ённые	-11.1774
дек	-11.1774
ышев	-11.1776
▁проблемаларын	-11.1776
ыбыҙҙың	-11.1777
▁весной	-11.1778
▁йомғаҡлау	-11.1779
▁достигнут	-11.1779
▁тренерҙар	-11.1779
истых	-11.178
▁ҡая	-11.178
Знак	-11.1781
▁картин	-11.1783
-17	-11.1784
мәһен	-11.1787
ложение	-11.1787
▁этабында	-11.179
▁мәктәбенең	-11.1791
▁киҫ	-11.1793
▁эшҡыуар	-11.1794
▁шум	-11.1795
▁заведения	-11.1795
▁сирле	-11.1796
▁аға	-11.1796
▁http	-11.1796
orld	-11.1796
▁берләштерә	-11.1796
▁төҙөлдө	-11.1796
▁уҙғарылған	-11.1796
▁билдәләгән	-11.1797
тил	-11.1799
▁яҙылыу	-11.18
иной	-11.18
▁йыйҙы	-11.18
ne	-11.18
▁относятся	-11.1802
▁Шанхай	-11.1802
▁мәл	-11.1803
▁оказался	-11.1803
▁штаба	-11.1804
▁һағы	-11.1804
▁машины	-11.1806
▁бурыстары	-11.1807
▁ставка	-11.181
ғолов	-11.1811
▁105	-11.1811
▁Св	-11.1811
▁итеүселәр	-11.1813
▁авторҙары	-11.1815
▁Баймак	-11.1817
▁Бир	-11.1818
▁голосов	-11.1818
▁Бикбаев	-11.1821
ини	-11.1822
▁дәрт	-11.1823
▁Урале	-11.1825
▁урамдар	-11.1826
▁эксперттар	-11.1826
онос	-11.1828
▁ДЮСШ	-11.1829
▁позволил	-11.1829
▁следующий	-11.1829
▁революции	-11.1829
▁Жюри	-11.1829
▁Почему	-11.1829
▁ҡушылған	-11.1829
строение	-11.183
▁деятели	-11.183
▁ЗАО	-11.1831
▁глубоко	-11.1831
▁һүҙе	-11.1832
▁өйгә	-11.1832
▁обсуждались	-11.1833
▁решать	-11.1833
2012	-11.1835
һо	-11.1842
Минең	-11.1843
▁нәшриәт	-11.1845
▁яҙма	-11.1845
▁Бул	-11.1846
▁дауаханаһында	-11.1848
▁федеральный	-11.1848
▁Һүҙ	-11.1852
▁кәүҙә	-11.1854
▁үҙебеҙ	-11.1855
▁(1969)	-11.1857
▁союза	-11.1857
▁руководства	-11.1861
▁бүтән	-11.1861
дарҙан	-11.1863
▁завершился	-11.1865
▁сообщают	-11.1865
▁тарихын	-11.1869
▁думал	-11.1869
▁йылҡы	-11.1871
▁повести	-11.1872
▁экс	-11.1875
▁русской	-11.1876
▁Тро	-11.1876
▁отмечены	-11.1877
премьеры	-11.1878
▁Ассоциация	-11.1878
елю	-11.1879
▁художественной	-11.1879
▁молодой	-11.188
ДИ	-11.188
▁портрет	-11.1881
▁эксперты	-11.1882
гулов	-11.1883
▁граждане	-11.1884
—60	-11.1884
лак	-11.1884
мәһә	-11.1884
һенең	-11.1885
Студент	-11.1888
▁показан	-11.1889
▁Тер	-11.1889
СКОЕ	-11.1892
▁һайланы	-11.1892
елдәр	-11.1893
▁Контроль	-11.1894
▁Второй	-11.1894
▁типтәрҙәр	-11.1895
▁декан	-11.1895
▁Рад	-11.1895
▁внеш	-11.1896
Учитель	-11.1902
▁һөҙөмтәләр	-11.1908
▁заняла	-11.1908
▁итальян	-11.1909
2010	-11.191
ерги	-11.191
-2010»	-11.1914
▁ҡалаға	-11.1915
▁Ун	-11.1916
производств	-11.1917
▁соответствующи	-11.1921
игра	-11.1923
▁йола	-11.1923
▁Пенсионно	-11.1926
▁кислород	-11.1926
▁регистрации	-11.1927
▁круж	-11.1928
▁финансирование	-11.1929
▁региональный	-11.1929
▁билдәләнәсәк	-11.1929
▁дворец	-11.193
▁артистов	-11.193
▁көл	-11.193
▁почетны	-11.1931
▁тирәһе	-11.1931
▁ограничен	-11.1931
▁Гер	-11.1934
▁победил	-11.1936
▁бәхетле	-11.1936
▁үҙәгенә	-11.1937
-2010	-11.1938
▁выросла	-11.1938
▁обновлен	-11.1939
▁етмәй	-11.1939
этил	-11.194
▁свер	-11.1942
▁соверш	-11.1943
▁составлял	-11.1944
гәндә	-11.1944
▁материала	-11.1945
саҡтар	-11.1946
лыҡта	-11.1947
▁спортсылары	-11.1948
Иҙел	-11.1948
ельные	-11.1949
▁тв	-11.1949
▁Газ	-11.1953
▁тиҙәр	-11.1953
▁ресурстары	-11.1955
мес	-11.1955
▁Больше	-11.1955
▁постановление	-11.1959
▁чаще	-11.1959
▁теләһә	-11.196
▁поддержал	-11.1963
лимов	-11.1963
▁голод	-11.1964
▁сап	-11.1964
▁зерно	-11.1965
▁Париж	-11.1965
▁ҡуртымға	-11.1967
▁теләк	-11.1967
тәренә	-11.1968
▁инновационно	-11.1969
▁мирово	-11.1969
▁бюджетных	-11.197
▁хис	-11.1974
▁баҫ	-11.1975
шеп	-11.1977
казать	-11.1977
▁бирер	-11.198
▁көйө	-11.1981
▁коллекция	-11.1982
▁әҫәр	-11.1983
▁представить	-11.1983
▁оса	-11.1984
▁дәрес	-11.1984
▁автомобиле	-11.1989
▁событие	-11.1989
лиев	-11.199
▁фосфор	-11.1992
▁заболеваемости	-11.1992
▁рәсәйҙәр	-11.1992
▁девушек	-11.1992
▁лучший	-11.1992
▁организацию	-11.1992
▁недвижимости	-11.1992
▁ҡалдыҡтары	-11.1994
▁монет	-11.1994
▁яҡшыртыуға	-11.1995
остан	-11.1997
азин	-11.1997
▁Исмәғилев	-11.1999
▁чай	-11.2
▁рассмотрен	-11.2
береһенә	-11.2003
▁Работы	-11.2004
▁Первая	-11.2006
▁аттар	-11.2007
▁существенно	-11.2007
Аҡмулла	-11.2007
▁яңылыҡтар	-11.2007
лыҡтан	-11.2008
▁организовано	-11.2009
ЕЕВ	-11.2009
▁һыуҙа	-11.2009
▁огромн	-11.2011
▁биатлон	-11.2014
От	-11.2021
▁углерод	-11.2022
▁шау	-11.2022
▁фажиғә	-11.2023
▁автобусов	-11.2023
▁айҡанлы	-11.2025
▁оплаты	-11.2025
▁просвещения	-11.2025
▁ябыу	-11.2026
▁вызвал	-11.2026
евского	-11.2026
▁зарубежных	-11.2028
▁обряд	-11.2029
▁Әйҙә	-11.203
говарива	-11.203
▁коллективтар	-11.203
▁туплау	-11.203
▁ирҙәр	-11.203
▁ерҙе	-11.2032
▁ресурстар	-11.2032
▁ҡойоу	-11.2034
▁Зарипов	-11.2038
▁115	-11.2043
▁уҙғара	-11.2045
▁лесов	-11.2046
▁соль	-11.2054
▁лев	-11.2058
▁БДМУ	-11.2058
▁тенденция	-11.2058
▁Һиндостан	-11.2058
▁сығанағы	-11.2058
▁деятелей	-11.2058
▁вернулся	-11.2059
▁яраҡлы	-11.2059
▁тула	-11.206
▁осталось	-11.206
▁частью	-11.206
▁барыбер	-11.2061
▁зонаһы	-11.2061
▁филармонияһы	-11.2063
▁массив	-11.2063
▁занимаются	-11.2063
▁экономической	-11.2064
▁полно	-11.2067
▁огне	-11.2068
▁регионы	-11.207
демократ	-11.2072
▁связанных	-11.2072
▁разработана	-11.2072
био	-11.2084
▁определ	-11.2084
▁нигеҙҙәре	-11.2084
▁лент	-11.2086
▁травы	-11.2086
▁увеличен	-11.2086
▁(14	-11.2087
▁Салаватского	-11.2088
ёк	-11.2089
3,2	-11.2089
▁образа	-11.209
▁яғында	-11.209
▁Килешеү	-11.2091
▁Учалинском	-11.2091
▁технопарк	-11.2091
▁илдән	-11.2091
Динамо	-11.2091
Шульган	-11.2092
▁строительных	-11.2092
▁килтерелгән	-11.2092
▁Славы	-11.2092
▁102	-11.2093
▁индекс	-11.2093
▁выступят	-11.2095
▁фильмов	-11.2095
▁Тыуған	-11.2096
▁действие	-11.2098
▁новогодни	-11.21
▁1774	-11.21
▁ката	-11.21
▁ҡылыс	-11.2104
100	-11.2105
▁Ярай	-11.2105
филиал	-11.2106
▁техникумы	-11.2106
▁ново	-11.211
▁Шуны	-11.2111
▁достав	-11.2112
▁Башкирски	-11.2112
▁йөкләмәләр	-11.2115
▁1812	-11.2116
▁күпләп	-11.2118
▁дуҫтары	-11.2118
▁экзамен	-11.212
▁распространение	-11.2121
▁религиозн	-11.2121
лауға	-11.2121
▁мэры	-11.2122
▁Международно	-11.2122
▁руководителем	-11.2125
▁флешмоб	-11.2125
Кызыл	-11.2125
▁Фил	-11.2125
▁500-	-11.2126
▁яулаған	-11.2126
▁күс	-11.2126
▁коллегалары	-11.2127
▁нами	-11.2127
▁исполнении	-11.2127
▁Николаевич	-11.2127
▁ҡапланған	-11.2128
▁культураларын	-11.2128
▁нигеҙе	-11.2128
▁сәхнәһендә	-11.2128
Прав	-11.213
▁Тал	-11.2132
▁файҙа	-11.2132
▁торорға	-11.2132
▁технол	-11.2132
▁площадка	-11.2134
▁производителей	-11.2135
езн	-11.2137
▁проекте	-11.2138
Из	-11.2138
тит	-11.2138
▁Сәғитов	-11.214
ынып	-11.2143
ивают	-11.2143
▁рож	-11.2144
дается	-11.2145
▁ниәт	-11.2145
▁үҙенсәлеге	-11.2145
▁Сил	-11.2148
тало	-11.2149
▁врача	-11.2151
▁начался	-11.2151
»).	-11.2156
-4	-11.2156
ҙәргә	-11.2157
ельную	-11.2158
▁взаимодействие	-11.2158
▁сожалению	-11.2158
▁состоянию	-11.2158
▁стипендия	-11.2158
▁здоровье	-11.2158
Кор	-11.2158
▁Профсоюздар	-11.2158
▁көнбағыш	-11.2159
▁проведут	-11.216
▁улай	-11.216
▁занятия	-11.2161
▁райондарынан	-11.2161
▁сығарып	-11.2162
▁правильно	-11.2162
ДАР	-11.2163
▁форумда	-11.2164
▁төҫтәге	-11.2165
стрем	-11.2165
▁минувш	-11.2165
▁ҡылыу	-11.2167
▁оборона	-11.2167
▁диниә	-11.2169
▁ранне	-11.2171
▁Мон	-11.2173
▁кавалерия	-11.2175
▁открыть	-11.2175
▁сертификаты	-11.2177
▁улус	-11.2178
▁алынды	-11.2178
▁лесах	-11.2179
▁бәйге	-11.218
▁Центре	-11.2181
Әсә	-11.2182
▁Стерлитамакский	-11.2183
4,3	-11.2183
▁Аралбаева	-11.2183
▁серии	-11.2184
▁Верх	-11.2184
бетон	-11.2185
▁суҡ	-11.2185
▁биреүселәр	-11.2186
▁кормов	-11.2188
үҙән	-11.2188
▁киләсәге	-11.219
▁многодетных	-11.2192
▁төҙәтмәләр	-11.2192
▁остался	-11.2193
▁супер	-11.2194
бей	-11.2194
▁подарок	-11.2194
▁Фарит	-11.2197
лашып	-11.2198
көнбайыш	-11.2199
▁маҡсатҡа	-11.22
▁занима	-11.2201
▁сыҙамлы	-11.2202
орош	-11.2203
тоң	-11.2206
▁Наша	-11.2207
▁112	-11.2207
ЫУ	-11.2207
До	-11.2209
▁сығыуы	-11.221
▁фильмдар	-11.2214
▁сверх	-11.2215
▁законы	-11.2215
яла	-11.2216
—15	-11.2217
инка	-11.2219
▁жир	-11.2221
▁необходимые	-11.2224
пев	-11.2224
▁Тейешле	-11.2225
▁синтетик	-11.2225
▁следующем	-11.2225
▁тәнҡит	-11.2225
▁посмотрел	-11.2226
▁түләргә	-11.2226
▁Разве	-11.2227
▁асырға	-11.2227
▁октябргә	-11.2229
▁пошли	-11.2229
▁берег	-11.2229
▁работающих	-11.223
▁йәштәрҙең	-11.2233
▁Ханты	-11.2236
▁саңғыһы	-11.2237
▁машиналары	-11.224
▁средстволары	-11.2241
▁бетон	-11.2242
▁баланс	-11.2242
▁теләне	-11.2245
клуб	-11.2246
▁имеющих	-11.2248
▁объема	-11.2249
▁родов	-11.225
емые	-11.225
Лучш	-11.2251
▁победитель	-11.2251
2009	-11.2253
▁другими	-11.2254
▁художестволы	-11.2256
джи	-11.2258
скор	-11.2258
цкий	-11.2259
▁нерабочи	-11.2259
▁творчестве	-11.2259
үгә	-11.226
▁Үткән	-11.226
▁ответственности	-11.226
так	-11.226
▁Нисек	-11.226
ҫҡа	-11.226
▁гв	-11.226
▁выбран	-11.2261
▁килтереп	-11.2261
▁игенселек	-11.2261
▁йәшерен	-11.2262
▁принц	-11.2262
▁эфире	-11.2262
▁күрһәтәсәк	-11.2262
▁хореограф	-11.2263
▁выступление	-11.2263
▁предварительным	-11.2264
һеҙлек	-11.2264
▁булғандар	-11.2264
▁комнат	-11.2265
▁тираж	-11.2266
▁мной	-11.2267
дополнительных	-11.2273
имуществ	-11.2273
▁ителеү	-11.2273
▁выявлено	-11.2275
▁гранты	-11.2277
▁сыуаш	-11.228
уза	-11.228
▁Топ	-11.2282
гәндәр	-11.2286
▁дерево	-11.2288
▁төнө	-11.229
▁Арыҫлан	-11.2293
▁күтәрелә	-11.2293
▁Зауралья	-11.2293
▁небольшие	-11.2293
НефАЗ	-11.2293
▁появился	-11.2293
▁Төмән	-11.2293
▁Айгиз	-11.2293
▁өлөшләтә	-11.2293
▁ҡолаҡ	-11.2294
▁республикалағы	-11.2295
шева	-11.2296
▁взрослых	-11.2296
ающий	-11.2296
▁сих	-11.2296
▁Нужно	-11.2297
▁спектаклдәр	-11.2299
▁ҡыуыш	-11.2299
▁гол	-11.2302
ӘТ	-11.2304
ологич	-11.2305
▁Мас	-11.2306
▁очереди	-11.2306
истый	-11.2309
афи	-11.2309
▁предусматривает	-11.231
▁засл	-11.2314
▁Съезд	-11.2314
чук	-11.2315
▁железнодорожн	-11.2316
▁занимал	-11.2316
носить	-11.2317
▁площадках	-11.2317
Татар	-11.2319
-2017	-11.2319
▁передачи	-11.232
▁борсо	-11.2322
▁запланирован	-11.2322
▁индексы	-11.2326
▁образы	-11.2326
▁добра	-11.2327
▁субсидии	-11.2327
▁растет	-11.2327
▁Комиссия	-11.2327
▁желающие	-11.2328
▁сооружений	-11.2328
▁приборҙар	-11.2328
▁решению	-11.2328
▁Йорт	-11.2329
▁фабрикаһы	-11.233
▁Асыҡ	-11.2334
▁произраста	-11.2335
ғи	-11.2335
▁республиканан	-11.2336
▁башҡарҙы	-11.2337
ступает	-11.2338
яж	-11.2338
▁торг	-11.2339
▁башкирским	-11.2339
5,5	-11.234
-2016	-11.2341
▁проводиться	-11.2342
енными	-11.2342
маясаҡ	-11.2343
▁туранан	-11.2344
▁учебного	-11.2346
щихся	-11.2347
▁Казак	-11.235
▁инвестиционных	-11.235
▁уход	-11.235
рыла	-11.2351
зол	-11.2354
▁егерме	-11.2361
▁ҡағылышлы	-11.2361
▁знаний	-11.2361
▁Ришат	-11.2361
▁позиции	-11.2361
▁Әминә	-11.2361
▁ликвидирован	-11.2361
▁бәйләнгән	-11.2361
▁плохо	-11.2362
▁ебәрелә	-11.2363
▁инспекцияһы	-11.2364
▁йоҡо	-11.2365
модел	-11.2367
▁Игр	-11.2368
▁гарант	-11.2368
ступление	-11.2368
▁погибли	-11.2368
▁социолог	-11.2369
▁Депутаты	-11.2372
▁АЛ	-11.2372
рош	-11.2374
▁гражданам	-11.2376
▁Быны	-11.2378
уже	-11.2379
▁страна	-11.2379
▁орг	-11.2383
▁күрһәтмә	-11.2384
▁ярко	-11.2386
▁Директор	-11.239
▁отлича	-11.239
▁Гульназ	-11.2395
▁Абдразаков	-11.2395
▁ЗАГС	-11.2395
▁ОРВИ	-11.2395
▁булышлығында	-11.2395
▁әйләнәһенә	-11.2396
▁әйҙә	-11.2396
производ	-11.2398
▁һанала	-11.2398
▁спортсыһы	-11.24
▁идаралыҡ	-11.2403
лағанда	-11.2404
▁булмауы	-11.2405
▁вода	-11.2405
▁крест	-11.2405
▁Иглинского	-11.2405
▁урамындағы	-11.2406
▁педагогов	-11.2407
яет	-11.2407
стал	-11.2411
Арена	-11.2411
▁снят	-11.2413
▁иҫкәртә	-11.2415
▁завершить	-11.2418
▁Президиумы	-11.2418
пле	-11.2418
▁һуҙ	-11.2419
▁метрлыҡ	-11.2421
▁аҫтына	-11.2422
▁топлива	-11.2426
БУ	-11.2427
▁луч	-11.2428
даш	-11.243
▁олимпия	-11.243
▁Гөлназ	-11.243
▁ҡараңғы	-11.243
▁(1968)	-11.243
▁башларға	-11.2432
▁выступал	-11.2433
3,3	-11.2433
▁урындарын	-11.2434
▁быраулау	-11.2435
▁довольно	-11.2437
▁Мажит	-11.2437
!”	-11.2439
▁базаһы	-11.2441
▁результатов	-11.2442
▁холдинг	-11.2442
▁0,1	-11.2442
▁конкурсына	-11.2443
▁почтаһы	-11.2444
асса	-11.2444
▁тәғәйен	-11.2446
▁Эштәр	-11.2447
▁асыҡлыҡ	-11.245
▁итәләр	-11.2452
▁пьесаһы	-11.2452
▁Еңеүселәр	-11.2452
▁үҫеү	-11.2452
▁жена	-11.2454
▁интенсив	-11.2455
▁идеяһы	-11.2459
2008	-11.2461
▁субъекты	-11.2461
башҡа	-11.2464
▁Көндөҙ	-11.2464
▁Компания	-11.2464
▁Мишкә	-11.2464
▁Самарской	-11.2464
▁лагеря	-11.2464
▁лавки	-11.2465
▁һыуға	-11.2465
лылар	-11.2465
▁тиҙерәк	-11.2466
▁хороший	-11.2466
▁иностранных	-11.2466
трек	-11.2466
пед	-11.2467
▁плана	-11.2467
ТЕР	-11.2468
▁хоть	-11.2468
▁детства	-11.2469
▁ТРК	-11.2471
КС	-11.2473
▁зарплаты	-11.2474
▁узнал	-11.2474
▁приема	-11.2475
▁требованиям	-11.2475
▁Яхин	-11.2475
Йәшлек	-11.2477
▁термометр	-11.2478
Арт	-11.248
▁кислот	-11.248
▁теленең	-11.2482
Экспо	-11.2483
▁узна	-11.2483
▁ҡеүәте	-11.2483
▁меда	-11.2484
▁эшселәр	-11.2486
чная	-11.2487
▁труды	-11.2488
поли	-11.2488
▁Российски	-11.2489
▁темалар	-11.2492
▁геолог	-11.2498
▁дүшәмбе	-11.2499
▁замечательн	-11.2499
▁Абзелиловском	-11.2499
▁саҡырыла	-11.2499
▁(1965)	-11.2499
▁Москву	-11.2499
ази	-11.25
▁опубликованы	-11.2501
Земля	-11.2501
век	-11.2501
▁эффект	-11.2502
▁сентябрендә	-11.2505
▁тулыраҡ	-11.2505
▁йортто	-11.2507
▁бригада	-11.2507
▁104	-11.251
метил	-11.2511
▁тултыр	-11.2512
чей	-11.2512
▁тун	-11.2515
▁аҡсаны	-11.2518
Газ	-11.2521
▁спектр	-11.2522
▁проектлау	-11.2524
▁Цветк	-11.2525
▁пункта	-11.2525
очник	-11.2526
▁привлечение	-11.2528
▁өлгөләре	-11.2528
▁высокие	-11.2529
ющую	-11.2529
▁кемгә	-11.253
Система	-11.2533
▁времен	-11.2534
▁поселений	-11.2534
▁откроется	-11.2534
▁теории	-11.2534
▁сентябргә	-11.2535
ожден	-11.2535
▁гармони	-11.2535
▁снега	-11.2536
▁спортивного	-11.2537
▁локаль	-11.2538
▁фактор	-11.2539
▁двумя	-11.2539
▁местные	-11.2541
▁сухо	-11.2541
▁синоптики	-11.2541
▁стат	-11.2543
дос	-11.2544
▁бүлмәһе	-11.2546
▁максимально	-11.2548
сфер	-11.2549
▁выделя	-11.255
▁запис	-11.2551
-2016»	-11.2552
▁молодежны	-11.2552
никова	-11.2555
▁Свердловской	-11.2557
▁комплексов	-11.2559
▁ҡатыш	-11.2564
актив	-11.2565
▁витамин	-11.2566
▁квартиры	-11.2566
роп	-11.2566
▁йоҡтороу	-11.2568
▁режиссёр	-11.2568
▁единств	-11.2569
-25	-11.2569
▁можем	-11.2569
▁пионер	-11.2569
▁Стәрлебаш	-11.2569
▁таҫма	-11.2569
▁ҡайтарыу	-11.257
▁вершин	-11.2571
▁лирик	-11.2571
▁думаю	-11.2573
ставить	-11.2575
▁служб	-11.2576
▁сиратында	-11.2576
▁Высш	-11.2577
▁отдельно	-11.2577
▁лидеры	-11.2578
▁решили	-11.2579
▁ҡурсаҡ	-11.2579
▁аналитик	-11.258
▁самая	-11.258
▁вечером	-11.258
▁данном	-11.2581
позиц	-11.2581
▁библиотек	-11.2585
▁ерҙәр	-11.2585
▁Белой	-11.2586
▁самостоятельно	-11.2586
ter	-11.2587
▁тәжрибәһен	-11.259
щения	-11.2593
▁уйындарында	-11.2593
Бөтә	-11.2594
▁река	-11.2594
▁содействие	-11.2595
▁Само	-11.2599
ЛЕК	-11.2601
▁невест	-11.2601
▁Очень	-11.2603
▁площадок	-11.2603
▁подтвержден	-11.2603
▁респиратор	-11.2603
▁недавно	-11.2603
▁урок	-11.2604
▁төнгө	-11.2604
▁уртаҡлашты	-11.2604
▁Асҡын	-11.2604
▁тауарҙары	-11.2604
Гагарин	-11.2604
▁ҡаралды	-11.2605
▁обратились	-11.2606
▁дальне	-11.2607
▁Верховн	-11.2607
гам	-11.2609
▁онкология	-11.2615
окисл	-11.2616
▁организатор	-11.2617
▁Роза	-11.2618
▁Амир	-11.2619
очек	-11.262
ированию	-11.2621
Чер	-11.2621
▁сельхоз	-11.2624
несении	-11.2628
Ғафури	-11.2629
▁округов	-11.2629
▁ГУ	-11.263
▁создано	-11.2631
▁сығанаҡтары	-11.2631
▁государственно	-11.2631
Уфимск	-11.2632
▁процестар	-11.2632
дис	-11.2637
▁лошадь	-11.2639
▁бағышланған	-11.2639
▁подготовку	-11.2639
▁позитив	-11.2639
▁Спиваков	-11.2639
▁биологии	-11.264
▁онотма	-11.264
▁фекерен	-11.2641
▁собрались	-11.2641
▁укрепление	-11.2642
▁сохранить	-11.2642
▁Шайморатов	-11.2643
▁Иртәгә	-11.2644
ланмаған	-11.2644
▁своему	-11.2645
▁ҡарағай	-11.2645
▁аяғы	-11.2645
▁телеграм	-11.2647
▁поднима	-11.2647
едет	-11.2648
▁пут	-11.2648
▁Конференция	-11.2651
▁ҡарарҙар	-11.2651
▁ҡуллана	-11.2652
▁проведена	-11.2653
▁һыр	-11.2654
▁Тамара	-11.2655
▁приглашен	-11.2656
▁Миңле	-11.2657
мәле	-11.2658
▁йыйыла	-11.266
уба	-11.2661
овское	-11.2662
▁стрелк	-11.2662
▁тегеү	-11.2666
▁политика	-11.2666
график	-11.2669
рф	-11.2669
▁ответственность	-11.2671
▁Зауралье	-11.2672
водится	-11.2672
▁высказал	-11.2673
нимал	-11.2673
▁арх	-11.2674
▁хеҙмәттәшлеге	-11.2674
▁обладатель	-11.2674
▁творчество	-11.2674
▁гриб	-11.2674
▁еңеп	-11.2675
▁мастера	-11.2675
▁айыу	-11.2676
центре	-11.2677
▁защищ	-11.2677
▁общественности	-11.2678
▁деловых	-11.2679
ҫкә	-11.2681
▁раҫлау	-11.2681
орд	-11.2682
▁приобрет	-11.2684
▁авторов	-11.2686
▁донор	-11.2686
▁юн	-11.2686
▁волк	-11.2687
▁тәбиғәтте	-11.2688
щиков	-11.2689
▁Тәү	-11.2689
ниж	-11.269
ИЦ	-11.269
▁ҡорамал	-11.2693
▁похож	-11.2695
▁Күр	-11.2695
▁треть	-11.2695
Че	-11.2699
юл	-11.2701
▁Хәл	-11.2701
▁ҡалаһынан	-11.2703
—50	-11.2703
▁горд	-11.2704
техника	-11.2704
▁ҡатындар	-11.2707
чить	-11.2708
▁будущего	-11.2709
▁презентации	-11.2709
▁баҫыла	-11.2709
▁реализация	-11.2709
▁Ут	-11.271
плачива	-11.271
▁Башҡорттар	-11.2712
▁счёт	-11.2713
▁исполнения	-11.2713
▁птицы	-11.2713
▁XX	-11.2714
рисов	-11.2715
▁Минздрава	-11.2716
▁һандар	-11.2716
һәр	-11.2717
▁заключен	-11.2717
▁горизонт	-11.2717
▁осра	-11.2719
▁яҙыусыһы	-11.2719
▁дисциплин	-11.2722
▁Станислав	-11.2723
▁пес	-11.2725
▁оставил	-11.2725
шат	-11.273
▁ҡайтыу	-11.273
▁Советской	-11.2731
▁спорту	-11.2731
▁ихата	-11.2733
▁Соответствующи	-11.2733
▁тыңлау	-11.2739
▁Валентина	-11.2741
▁артында	-11.2741
▁гетеро	-11.2742
ГАЗ	-11.2743
▁Туҡта	-11.2744
▁медицине	-11.2745
—70	-11.2745
▁создавать	-11.2745
▁инженеры	-11.2746
▁решений	-11.2747
енько	-11.2749
Башкортостанстат	-11.2751
үсе	-11.2752
▁гектара	-11.2754
▁сравн	-11.2755
▁успехов	-11.2755
быҙҙың	-11.2756
▁предстоящ	-11.2758
етдинова	-11.2759
▁композиторов	-11.2763
ОВКА	-11.2763
▁2024	-11.2764
▁району	-11.2768
Кол	-11.277
Ырымбур	-11.2773
инской	-11.2774
ывают	-11.2774
▁продолжал	-11.2775
▁һүрәттәр	-11.2776
7,5	-11.2778
Регион	-11.2779
▁представит	-11.2779
игы	-11.278
▁баскетбол	-11.278
▁Олимпиада	-11.278
▁солнце	-11.278
▁студии	-11.278
▁остальные	-11.278
▁Зилаирского	-11.2781
▁сессия	-11.2781
▁очаг	-11.2782
еров	-11.2782
▁Әлфиә	-11.2782
плод	-11.2783
▁живут	-11.2784
яли	-11.2785
▁центры	-11.2785
▁оперативно	-11.2786
▁каждым	-11.2789
▁(2000	-11.2791
ыбыҙҙы	-11.2791
▁тапшырған	-11.2793
▁комиссиялары	-11.2793
▁называ	-11.2793
▁мотив	-11.2794
ошло	-11.2796
▁Танып	-11.2797
▁Александрович	-11.2798
▁опас	-11.2798
X	-11.2799
телем	-11.28
остр	-11.2801
▁душе	-11.2801
▁Дем	-11.2802
▁теленән	-11.2802
▁итоге	-11.2804
▁алтынсы	-11.2805
▁советының	-11.2805
▁татарском	-11.2805
▁иртән	-11.2806
▁светло	-11.2807
ивания	-11.2807
жига	-11.2808
елергә	-11.2808
▁Кино	-11.2811
▁займ	-11.2811
▁һауы	-11.2813
5,7	-11.2814
иде	-11.2815
▁бакалейны	-11.2816
▁зарубежья	-11.2816
▁стоимости	-11.2816
▁адвокат	-11.2816
▁поверхности	-11.2816
▁тоторға	-11.2816
▁представляют	-11.2816
▁Ҡоралл	-11.2817
▁вместо	-11.2817
▁формалаштырыу	-11.2817
▁полиции	-11.2818
▁барышы	-11.2819
▁ерләнгән	-11.282
▁доцент	-11.2821
▁Московской	-11.2822
▁призвал	-11.2822
▁кешенән	-11.2822
▁эстафета	-11.2823
ПОВ	-11.2824
▁промышленного	-11.2824
▁илдәрҙең	-11.2824
▁нашим	-11.2829
▁клубының	-11.283
▁Шунда	-11.2831
▁основы	-11.2832
▁кн	-11.2835
▁билдәһеҙ	-11.2837
▁стратегик	-11.2838
3,8	-11.2838
▁исполнит	-11.2838
▁ире	-11.2839
▁шөғөлләнеү	-11.2839
▁культуру	-11.2841
▁ашламалар	-11.2843
▁Күмертауҙа	-11.2844
▁Петербург	-11.2845
көнбайышҡа	-11.2845
4,2	-11.2847
▁сообщал	-11.2848
▁йәм	-11.2848
▁инвесторов	-11.285
▁төшөү	-11.2851
3,5	-11.2852
▁БДПУ	-11.2852
▁Октября	-11.2852
▁настоящий	-11.2852
▁соцсетях	-11.2852
▁теннис	-11.2852
▁нужна	-11.2852
▁организацией	-11.2852
▁подтвердил	-11.2852
учил	-11.2852
▁увеличилось	-11.2852
▁Франции	-11.2852
▁әҙәм	-11.2853
▁файҙаланып	-11.2853
▁адм	-11.2854
▁финалист	-11.2855
▁расход	-11.2855
▁инициативаһы	-11.2856
▁рабочий	-11.2856
▁Сибая	-11.2856
▁ярҙамын	-11.2856
▁начина	-11.2858
ельный	-11.2859
радиокомпанияһы	-11.286
▁Китая	-11.286
▁ауылдары	-11.2861
▁Мине	-11.2862
▁конгресы	-11.2863
▁илдәрҙән	-11.2865
▁Указом	-11.2865
▁середин	-11.2865
▁Центральной	-11.2867
▁командиры	-11.2868
▁күтәр	-11.2869
▁сход	-11.2871
▁Аҡмулла	-11.2871
▁Яҙ	-11.2872
▁капитала	-11.2874
▁развит	-11.2875
нач	-11.2878
▁кош	-11.2879
▁үҫешенең	-11.2882
▁соло	-11.2883
селились	-11.2884
▁быйылғы	-11.2884
▁гостям	-11.2886
▁коллеги	-11.2886
▁тариф	-11.2887
Народный	-11.2887
▁Балаҡатай	-11.2888
▁Йәрмәкәй	-11.2888
▁Решение	-11.2888
▁содержат	-11.2888
▁береһенә	-11.289
Эш	-11.2891
▁оценил	-11.2891
▁сувенир	-11.2892
ИНА	-11.2892
▁Президиума	-11.2892
▁водород	-11.2893
—11	-11.2894
▁телдә	-11.2894
▁Польша	-11.2895
▁чемпионате	-11.2895
▁традицияларын	-11.2897
әктәр	-11.2897
▁имел	-11.2898
правились	-11.2899
десант	-11.2901
▁службе	-11.2902
▁ҡорбан	-11.2902
▁Депутат	-11.2903
▁шашка	-11.2906
▁Южного	-11.2907
тельств	-11.2907
▁һауыт	-11.2908
▁Первым	-11.2908
▁йылында	-11.2909
опровод	-11.2909
▁началу	-11.2909
▁көкөрт	-11.2911
▁Синоптиктар	-11.2911
▁һүндереү	-11.2911
▁Валеев	-11.2913
▁рейтинге	-11.2914
▁паразит	-11.2914
▁главой	-11.2916
▁терминал	-11.2917
▁етештергән	-11.292
▁ветеранам	-11.2922
▁Ғүмәрова	-11.2924
Ҡар	-11.2924
▁Хайбуллинского	-11.2924
▁ҡуҙаҡлы	-11.2924
▁Ксения	-11.2924
▁тулайым	-11.2924
▁пришлось	-11.2924
▁орд	-11.2925
▁льготалы	-11.2925
▁этнография	-11.2925
▁твои	-11.2926
▁әҙерләне	-11.2926
▁карты	-11.2928
▁алабыҙ	-11.2929
▁распространения	-11.2929
▁оказались	-11.293
Журналист	-11.2931
▁углеводород	-11.2936
ьные	-11.2936
▁әңгәмә	-11.2938
▁дворе	-11.2939
▁празднования	-11.294
▁революцион	-11.2944
▁высоким	-11.2944
▁Мастер	-11.2946
▁Мусин	-11.2946
▁күтәреүселәр	-11.2947
▁рубеж	-11.2947
бий	-11.2948
▁резко	-11.2948
▁такую	-11.2951
ЧЕ	-11.2952
▁көт	-11.2953
дова	-11.2953
▁нигеҙҙә	-11.2955
▁туҡыма	-11.2955
▁БАЙ	-11.2958
▁веществ	-11.2958
Открыт	-11.2959
Кармаскалинского	-11.296
▁Заһир	-11.296
▁автомобиля	-11.296
▁благодарность	-11.296
▁Эльмира	-11.296
▁управлении	-11.296
▁междунар	-11.2961
▁ватан	-11.2961
▁использование	-11.2961
аһи	-11.2963
▁учёт	-11.2963
▁войско	-11.2965
▁охране	-11.2965
▁бурыслы	-11.2965
▁высот	-11.2966
▁требуется	-11.2966
▁ҡыҙыу	-11.2967
көнбайыштан	-11.2968
▁микрорайоне	-11.2968
▁именем	-11.2968
▁буран	-11.2969
▁коз	-11.2971
Вер	-11.2972
▁реклама	-11.2975
брал	-11.2976
▁Ошондай	-11.2977
▁артистка	-11.2979
▁партиялар	-11.2979
▁турнира	-11.2982
▁позднее	-11.2982
ma	-11.2985
▁находя	-11.2986
▁автономиял	-11.2986
▁гимназияһы	-11.2987
▁слуша	-11.2987
▁включены	-11.2988
▁мул	-11.2989
▁терпе	-11.2989
▁коня	-11.2989
▁статьи	-11.2991
ләшә	-11.2991
лектә	-11.2992
▁Шакиров	-11.2992
ходят	-11.2993
▁марки	-11.2994
теш	-11.2994
ләрҙә	-11.2995
Куль	-11.2996
МК	-11.2996
▁ипподром	-11.2996
▁лечебно	-11.2996
▁Рәшит	-11.2996
История	-11.2997
▁содержания	-11.2997
▁песню	-11.2997
▁попросил	-11.2998
ИМОВ	-11.2998
▁Ярослав	-11.2999
ҡор	-11.2999
ондар	-11.2999
тник	-11.3
▁зарплат	-11.3002
▁бөт	-11.3004
▁творческой	-11.3005
▁Нар	-11.3005
▁районного	-11.3006
—13	-11.3006
▁Гео	-11.3006
▁райондар	-11.3007
еүсе	-11.3007
▁Орск	-11.3008
▁карбон	-11.301
МУ	-11.301
▁онколог	-11.301
▁дауаханалар	-11.3011
▁мәғәнә	-11.3012
язы	-11.3015
▁золота	-11.3015
▁стола	-11.3015
▁Тел	-11.3016
▁совершенно	-11.3017
▁йәшә	-11.3018
▁ҡаҙаныштар	-11.3018
▁неза	-11.3018
Шә	-11.3018
▁Бес	-11.3019
▁тапшырыуҙар	-11.3019
▁малайҙар	-11.302
▁требования	-11.3021
▁рәссамдар	-11.3022
▁бүленде	-11.3027
▁Ҡан	-11.3029
щие	-11.3031
развед	-11.3032
▁175	-11.3032
▁тәфтиш	-11.3033
▁Ҡалтасы	-11.3033
▁помещений	-11.3033
▁солисы	-11.3033
▁дәртләндереү	-11.3033
▁Киев	-11.3033
гинеколог	-11.3033
▁Башҡарма	-11.3033
▁төркөмдәр	-11.3035
▁Михайлович	-11.3036
КУ	-11.3037
▁түбә	-11.3038
▁врачи	-11.3042
▁Ежегодно	-11.3043
▁июнгә	-11.3045
▁отделением	-11.3046
ларынан	-11.3046
▁наше	-11.3047
▁имущество	-11.3047
▁Абдразаҡов	-11.3048
▁ҡалаларынан	-11.3048
Мак	-11.3049
трон	-11.3049
мәйенсә	-11.305
▁юлда	-11.3052
▁майы	-11.3053
▁һайлауҙа	-11.3053
▁Сәй	-11.3053
ошли	-11.3054
▁Күҙ	-11.3056
▁артта	-11.3057
▁консультант	-11.3057
шево	-11.3058
▁стих	-11.3059
▁государство	-11.3059
-27	-11.306
западный	-11.306
6,3	-11.306
Евро	-11.3061
▁пласт	-11.3061
▁арттырыуға	-11.3061
▁процессы	-11.3064
▁культурных	-11.3064
лашҡан	-11.3064
уляр	-11.3065
чего	-11.3066
групп	-11.3067
▁отмет	-11.3068
▁трёх	-11.3069
▁спортивный	-11.307
▁Премия	-11.307
▁үрсетеү	-11.307
▁героя	-11.307
▁тулыланды	-11.307
▁кейәү	-11.3071
▁общую	-11.3072
▁боҙоуҙар	-11.3072
▁Хакимов	-11.3072
▁регулярно	-11.3073
▁Тре	-11.3074
▁августе	-11.3076
▁температуры	-11.3079
▁хозяйству	-11.308
урман	-11.308
▁ашы	-11.308
▁Бәйге	-11.3082
▁воде	-11.3082
▁элементтары	-11.3083
▁һөнәрҙәр	-11.3083
▁маркалы	-11.3084
▁алын	-11.3085
▁1896	-11.3085
▁өр	-11.3087
▁күрһәткесе	-11.3087
лашты	-11.3087
Ур	-11.309
▁соҡор	-11.3092
▁даст	-11.3092
▁яҡындары	-11.3093
▁языки	-11.3094
▁күргәҙмәләр	-11.3096
▁значим	-11.3097
▁общая	-11.3097
▁берега	-11.3097
—80	-11.3098
▁мн	-11.3099
▁белешмә	-11.3102
▁часы	-11.3102
оғо	-11.3105
▁Пустовгаров	-11.3106
▁резидент	-11.3106
▁победителем	-11.3106
▁группе	-11.3107
▁(2013)	-11.3107
▁Витали	-11.3107
▁отделений	-11.3108
▁АО	-11.3108
▁ҡыуып	-11.3109
ослов	-11.3109
▁торговле	-11.311
▁Васильевич	-11.311
▁планах	-11.311
лиф	-11.3111
▁ҡушыуы	-11.3111
риз	-11.3112
▁йырын	-11.3113
▁(+	-11.3114
▁һөйләш	-11.3116
▁завоевали	-11.3116
ңә	-11.3121
4,6	-11.3121
▁260	-11.3121
▁шифахана	-11.3122
▁Китай	-11.3124
▁юғалған	-11.3127
ырлыҡ	-11.3129
▁төрмә	-11.3129
ad	-11.3132
▁продолжают	-11.3133
ләндереү	-11.3133
▁урамында	-11.3133
▁слав	-11.3137
▁Сулейманов	-11.3141
▁һатыла	-11.3142
▁провод	-11.3142
▁алалар	-11.3142
▁Әйткәндәй	-11.3143
▁Заявки	-11.3143
▁АПК	-11.3143
▁пригласил	-11.3144
таки	-11.3144
▁стадия	-11.3144
▁бригадир	-11.3145
▁эшләүгә	-11.3145
пот	-11.3145
кәс	-11.3146
▁Тәүҙә	-11.3148
▁функциональ	-11.3149
▁кот	-11.315
ҡта	-11.315
▁камил	-11.3153
ҙаҡ	-11.3153
▁моего	-11.3158
▁үлсәү	-11.3158
ющими	-11.3159
▁Мухамет	-11.316
ировка	-11.316
▁налога	-11.3161
▁берләштереү	-11.3162
сторож	-11.3164
▁яуа	-11.3164
рва	-11.3166
▁Айҙар	-11.317
дит	-11.3171
продукт	-11.3171
▁многое	-11.3172
▁подробно	-11.3173
▁Ете	-11.3173
вил	-11.3174
▁рабоч	-11.3174
▁мнение	-11.3174
▁ион	-11.3179
▁последнее	-11.318
▁потребителей	-11.318
▁христиан	-11.318
▁свеклы	-11.318
▁экран	-11.318
▁состязания	-11.318
ительный	-11.3181
▁талпан	-11.3181
▁духовно	-11.3181
▁сада	-11.3181
емдең	-11.3183
▁коллегии	-11.3184
▁Мелеузовском	-11.3184
▁законһыҙ	-11.3184
өбә	-11.3184
▁придется	-11.3184
▁сыҡҡанда	-11.3185
▁деятельностью	-11.3185
▁юг	-11.3186
▁Элек	-11.3188
▁схема	-11.3188
▁пациенттар	-11.319
▁ҡушылыу	-11.3191
▁интересов	-11.3192
▁школьники	-11.3193
▁РТ	-11.3193
цит	-11.3194
▁Полли	-11.3194
▁профильны	-11.3195
▁ушел	-11.3197
качеств	-11.3197
мәүе	-11.32
өсө	-11.3201
▁төҙөк	-11.3204
тыш	-11.3204
▁структуре	-11.3207
▁190	-11.3207
▁ҡойо	-11.3207
▁избирательно	-11.3208
▁Хөкүмәтендә	-11.3208
Ахметов	-11.3211
▁илгә	-11.3212
▁c	-11.3212
▁уст	-11.3216
▁археологик	-11.3217
▁етештерелә	-11.3218
▁күтәрелгән	-11.3218
ОБ	-11.3218
▁торбалар	-11.3219
li	-11.3219
▁тоҡомло	-11.3219
▁дает	-11.322
▁эргәһенә	-11.3222
▁всеми	-11.3222
штыр	-11.3223
берг	-11.3223
провод	-11.3225
▁көньяҡта	-11.3228
▁Це	-11.3228
▁географ	-11.3231
ғәли	-11.3233
▁учеников	-11.3234
вка	-11.3234
ландырыу	-11.3234
▁немало	-11.3235
▁Государственном	-11.3236
▁ярата	-11.3241
▁Итог	-11.3242
▁төшөрә	-11.3242
▁эштәренә	-11.3244
▁кисәһе	-11.3246
сыларҙы	-11.3247
диагност	-11.3252
▁(2010).	-11.3253
▁препараттар	-11.3254
▁благоустройству	-11.3255
▁күлдәк	-11.3255
▁һабаҡ	-11.3255
▁обе	-11.3255
▁населённы	-11.3255
▁хром	-11.3256
Муха	-11.3256
▁хорошие	-11.3256
▁невозможно	-11.3257
▁Первые	-11.3257
Яр	-11.3259
▁йортона	-11.3259
дент	-11.326
▁другое	-11.326
▁пожара	-11.3261
мель	-11.3262
▁температур	-11.3263
▁ярлы	-11.3263
▁автобусы	-11.3265
6,5	-11.3265
▁внесен	-11.3266
Социаль	-11.3273
▁Едино	-11.3273
▁приход	-11.3275
Общественн	-11.3275
▁подъезд	-11.3275
▁пуш	-11.3277
▁кәмә	-11.3277
▁нескә	-11.3277
4,4	-11.3277
▁Музей	-11.3278
уголь	-11.3278
▁презентацияһы	-11.3278
▁другом	-11.3279
вис	-11.3279
▁отправ	-11.3281
▁ҡалын	-11.3284
▁досто	-11.3284
▁составын	-11.3286
▁Стр	-11.3286
фә	-11.3286
▁надзор	-11.3286
Ҡыр	-11.3288
▁Международн	-11.3288
рын	-11.3288
▁обеспечен	-11.3289
▁литератур	-11.329
-22	-11.3291
рица	-11.3291
Совет	-11.3292
▁Тере	-11.3292
▁Победители	-11.3292
▁декабргә	-11.3292
▁субсидий	-11.3292
Бизнес	-11.3292
▁Одним	-11.3292
▁һылтанма	-11.3292
▁осуществлял	-11.3292
▁Дин	-11.3292
▁растение	-11.3292
▁годовщин	-11.3292
▁издательства	-11.3293
▁ултыр	-11.3293
▁уйлай	-11.3293
▁помогать	-11.3294
▁обсуждения	-11.3294
▁команду	-11.3295
ционный	-11.3296
▁статистики	-11.3297
▁генерального	-11.3297
▁осорға	-11.3297
▁Государственный	-11.3298
▁мусора	-11.3298
йәр	-11.3298
ңды	-11.33
▁ултырышын	-11.33
▁модернизациялау	-11.3301
▁имтиханын	-11.3302
▁атмосфера	-11.3304
▁очередной	-11.3304
▁Ча	-11.3304
болотло	-11.3305
▁деятеля	-11.3305
▁осмотр	-11.3306
▁ҡалырға	-11.3307
▁биҙәк	-11.3312
▁Данил	-11.3315
▁бейеүе	-11.3317
▁Һеҙгә	-11.3319
▁универсаль	-11.3322
▁(13	-11.3324
▁экспедиция	-11.3326
▁әҙ	-11.3326
▁Илья	-11.3326
евая	-11.3328
цел	-11.3328
▁заболевших	-11.333
▁информационных	-11.333
▁ғәжәп	-11.333
▁Батша	-11.333
унов	-11.333
▁белорус	-11.333
▁Заместител	-11.333
▁бүлеп	-11.3331
Туймазы	-11.3331
▁насыщен	-11.3332
▁төҙөләсәк	-11.3334
ДЫ	-11.3335
▁учиться	-11.3335
▁штурм	-11.3336
▁изданий	-11.3337
▁бурыстарҙы	-11.334
▁Гар	-11.3343
▁шым	-11.3343
Под	-11.3344
▁усилен	-11.3346
өндә	-11.3347
▁Татарстандың	-11.3347
▁порталы	-11.3353
▁соответствующе	-11.3354
▁биология	-11.3357
ОРО	-11.3361
тация	-11.3364
▁предварительно	-11.3364
▁соиска	-11.3364
елей	-11.3365
▁населением	-11.3365
▁Указы	-11.3365
Бур	-11.3365
▁дизайнер	-11.3366
▁Агентство	-11.3367
▁Людмила	-11.3367
▁Тикшереү	-11.3367
▁Шәхси	-11.3367
▁предназначен	-11.3367
▁хватает	-11.3367
▁пределами	-11.3367
▁ведущий	-11.3368
▁тёмно	-11.3368
ырҙар	-11.3368
▁КРС	-11.3368
▁ишетте	-11.3368
▁месту	-11.337
▁Всероссийск	-11.3371
КИН	-11.3371
▁праздничный	-11.3371
▁проведено	-11.3372
▁Друг	-11.3372
ологияһы	-11.3373
▁проверки	-11.3375
Мирас	-11.3375
фос	-11.3376
▁бригадаһы	-11.338
һөҙ	-11.3381
▁предоставлен	-11.3383
▁Дамир	-11.3388
▁активное	-11.339
нюю	-11.3392
▁властары	-11.3392
▁Путиндың	-11.3394
▁Барыһы	-11.3396
▁урыҫтар	-11.3396
▁Длин	-11.34
әмә	-11.3401
▁Тот	-11.3402
▁эшҡыуарлыҡты	-11.3402
ющее	-11.3403
▁эҙ	-11.3404
▁Башланғыс	-11.3405
▁Дмитрия	-11.3405
▁ассортимент	-11.3405
▁отрасль	-11.3405
▁шәфҡәт	-11.3405
▁миграция	-11.3405
▁престиж	-11.3405
▁современного	-11.3405
Нефте	-11.3406
▁тәғәйенләү	-11.3406
▁ролен	-11.3407
▁кандидатура	-11.3408
▁построено	-11.3408
Сибай	-11.3408
▁отправил	-11.341
▁запасы	-11.3412
▁физико	-11.3412
▁Үл	-11.3413
гнал	-11.3413
▁Тар	-11.3417
пят	-11.3418
▁исемлеген	-11.3419
▁дипломы	-11.3419
▁топ	-11.342
▁йортҡа	-11.342
Наш	-11.3427
Мең	-11.3427
▁долю	-11.3427
шеү	-11.3428
300	-11.343
▁математик	-11.3431
▁ҡайт	-11.3432
▁хәрәкәттәр	-11.3432
лмай	-11.3432
▁ВИЧ	-11.3433
▁мандат	-11.3433
әсәһе	-11.3435
▁Зуб	-11.3435
▁сар	-11.3438
▁комплексе	-11.344
▁возвраща	-11.3443
▁молодёжи	-11.3443
▁переписи	-11.3443
▁яңғыраны	-11.3443
▁ликвидации	-11.3443
▁ошиб	-11.3443
▁КВН	-11.3444
▁девушка	-11.3444
▁вкус	-11.3444
▁Регионально	-11.3445
▁үҫмер	-11.3449
химия	-11.345
▁түләүле	-11.345
Дуҫлыҡ	-11.345
▁гектарҙан	-11.3451
5,6	-11.3451
▁ориентир	-11.3451
▁8-9	-11.3451
▁целевой	-11.3452
▁таком	-11.3452
▁мисс	-11.3452
▁миҙгелдә	-11.3454
▁майор	-11.3455
▁Ямал	-11.3456
▁известного	-11.3456
▁ярус	-11.3456
▁рейстар	-11.3456
▁комплексының	-11.3459
▁Аскар	-11.3461
▁доска	-11.3461
▁потенциаль	-11.3462
▁Айдар	-11.3462
▁хотят	-11.3463
▁ҡулын	-11.3465
▁провинцияһы	-11.3466
▁Йәнә	-11.3466
▁комиссар	-11.3466
▁икәнлеген	-11.3467
▁именлеге	-11.3468
▁метеор	-11.3468
▁дивизияһы	-11.3468
▁спортивно	-11.3473
▁инфраструктур	-11.3473
▁вакцин	-11.3474
▁шиғри	-11.3474
▁хочет	-11.3474
ящие	-11.3475
▁июлдән	-11.3477
▁повыш	-11.3478
▁одному	-11.3479
▁Объект	-11.3482
▁регламент	-11.3482
▁современные	-11.3482
Большая	-11.3482
▁возвращен	-11.3482
долго	-11.3482
▁алл	-11.3482
▁таҡта	-11.3483
▁выражен	-11.3485
▁Кис	-11.3485
▁выступает	-11.3487
рина	-11.3488
тысяч	-11.3488
▁Салавате	-11.3489
▁соседни	-11.349
▁цеп	-11.349
лык	-11.3491
▁Ҡарт	-11.3491
▁избиратель	-11.3492
▁каса	-11.3494
телями	-11.3496
▁пунктах	-11.3497
▁геофизик	-11.3497
▁установ	-11.3498
ЛОВ	-11.35
▁военного	-11.3502
▁гастролдәр	-11.3504
▁2,3	-11.3507
▁непо	-11.3507
альную	-11.3507
▁хәбәрсеһе	-11.3507
▁мое	-11.3508
▁действ	-11.3508
тимер	-11.3508
▁миҙгеле	-11.351
зян	-11.3514
▁теория	-11.3514
4,9	-11.3515
▁тулыу	-11.3516
▁һауала	-11.3517
▁Тут	-11.3518
▁работали	-11.352
Сәли	-11.352
▁пенсий	-11.352
▁участке	-11.352
▁консультации	-11.352
▁(1955)	-11.352
▁сообщению	-11.352
▁пожелал	-11.352
▁политических	-11.3521
проб	-11.3522
▁күрһәтеләсәк	-11.3522
▁өйрәт	-11.3524
▁особенности	-11.3524
▁хужалығында	-11.3527
▁квалификациялы	-11.3527
СЫ	-11.3528
▁әҫәрҙәрен	-11.3529
2,9	-11.353
ҡәт	-11.3534
▁байлыҡ	-11.3539
дәрен	-11.354
▁мг	-11.3541
Абдуллин	-11.3541
▁лук	-11.3542
▁нашем	-11.3543
▁глубин	-11.3546
тәренең	-11.3547
раль	-11.3549
уются	-11.3551
ешься	-11.3551
▁акциялар	-11.3553
▁Хажин	-11.3553
интернаты	-11.3554
Тан	-11.3554
▁градуса	-11.3556
▁республик	-11.3556
▁Россию	-11.3558
▁бөтөрөлә	-11.3558
▁аңлата	-11.3558
▁круглый	-11.3558
▁ведущие	-11.3558
▁Ҡурған	-11.3559
▁яһарға	-11.3559
▁массовых	-11.3561
▁высших	-11.3561
)]	-11.3561
▁водой	-11.3563
▁гостиниц	-11.3563
Союз	-11.3564
▁прибыли	-11.3566
▁асыласаҡ	-11.3569
▁крәҫтиәндәр	-11.357
-2013»	-11.3573
▁намыҫлы	-11.3574
▁РИА	-11.3576
▁живет	-11.3578
▁аҡыллы	-11.3579
▁мәнфәғәттәрен	-11.358
▁конструкциялар	-11.3585
данного	-11.3585
▁периода	-11.3585
▁пландары	-11.3585
▁Уральск	-11.3586
▁идеялар	-11.3592
▁Нефтекамске	-11.3593
▁спортсмены	-11.3594
▁Гал	-11.3596
сағын	-11.3597
▁ГТРК	-11.3597
▁ежедневно	-11.3597
▁переговоры	-11.3597
▁присужден	-11.3597
▁тәмәке	-11.3597
▁арнала	-11.3597
▁выйти	-11.3598
▁направить	-11.3598
▁найден	-11.3598
-2012»	-11.3599
▁образованию	-11.3602
▁башланғандан	-11.3602
▁бирмәй	-11.3603
▁присвоено	-11.3604
юк	-11.3604
▁БДИ	-11.3606
альное	-11.3607
il	-11.3609
▁АНК	-11.361
▁мужчины	-11.3614
▁финансовой	-11.3614
▁t	-11.3614
▁федеральным	-11.3623
▁Болгария	-11.3626
▁житель	-11.3626
▁упал	-11.363
▁мысли	-11.3632
▁декор	-11.3632
▁легенда	-11.3633
▁связаны	-11.3634
▁ведомствола	-11.3634
▁Анастасия	-11.3636
▁Большинство	-11.3636
▁лошади	-11.3636
▁Например	-11.3636
▁нефтяной	-11.3636
▁сетях	-11.3636
▁Рустем	-11.3636
▁атлетика	-11.3636
▁судьба	-11.3637
▁Гаскарова	-11.3637
▁һатылған	-11.3637
▁ҡунаҡхана	-11.3638
▁Исмагилова	-11.3638
▁тиҙлеге	-11.3638
▁академического	-11.3642
▁Пугачёв	-11.3643
что	-11.3644
асси	-11.3647
▁байы	-11.3647
▁приглашены	-11.3649
▁аграрии	-11.365
▁ауырыуы	-11.365
8,6	-11.3651
▁яугир	-11.3651
ьная	-11.3652
▁наверное	-11.3654
маһа	-11.3654
▁назв	-11.3656
▁сығыр	-11.3657
▁парт	-11.3658
▁конкурстары	-11.3658
▁театрҙары	-11.366
чай	-11.3665
овскому	-11.3668
һыңмы	-11.3668
▁урожай	-11.367
▁Фран	-11.3671
сут	-11.3671
▁фаза	-11.3672
▁пристав	-11.3672
▁барыһына	-11.3673
▁йүнәлтелә	-11.3674
▁освобожден	-11.3675
▁посмотреть	-11.3675
▁ӨДАТУ	-11.3675
▁подготовить	-11.3675
Золотой	-11.3675
▁рынок	-11.3675
▁представление	-11.3676
▁собрать	-11.3677
▁системаһына	-11.3677
▁теркә	-11.3678
▁Рамиль	-11.3678
▁(2010)	-11.3679
сәләр	-11.3679
▁специальности	-11.368
▁предложений	-11.368
▁Традиционно	-11.3681
▁метра	-11.3681
▁известных	-11.3682
кредит	-11.3682
ҡайны	-11.3682
▁видим	-11.3684
▁мәктәбен	-11.3684
▁инновационных	-11.3685
▁привлечения	-11.3685
▁нығытыуға	-11.3689
▁һәләте	-11.369
-2019	-11.3693
очное	-11.3693
▁күҙҙәрен	-11.3696
▁препаратов	-11.3696
▁сараларының	-11.3696
БАЕВ	-11.3697
▁һаҙ	-11.3697
▁говоря	-11.3699
▁Дед	-11.3699
▁Ташкент	-11.37
▁тархан	-11.3703
технической	-11.3704
▁определя	-11.3704
▁ҡырҡыу	-11.3705
▁днях	-11.3705
Балалар	-11.3705
әйтеү	-11.3705
▁өфөләр	-11.3707
▁107	-11.3707
▁бөттө	-11.3707
туш	-11.3707
▁черт	-11.3708
▁начнут	-11.3708
▁представителя	-11.371
▁Султан	-11.371
ТАРЫ	-11.3711
oo	-11.3713
▁специальны	-11.3713
▁появилась	-11.3714
▁глобаль	-11.3714
▁царь	-11.3714
▁кластар	-11.3715
▁видам	-11.3715
▁желание	-11.3715
тверд	-11.3716
▁имущества	-11.3716
▁тамамлай	-11.3716
▁Паралимпия	-11.3717
▁аҙналығы	-11.3717
▁ғинуарында	-11.3719
▁тим	-11.3719
ища	-11.372
Һаҡмар	-11.372
Силәбе	-11.3721
▁коронавирусом	-11.3722
▁художественного	-11.3722
▁Специалисты	-11.3722
▁1773	-11.3724
▁Һуғыш	-11.3724
апр	-11.3725
торг	-11.3725
фу	-11.3725
▁пря	-11.3725
▁тематически	-11.3727
▁Пан	-11.3728
▁һорауҙарына	-11.3728
▁алыусы	-11.3728
▁Сөләймәнов	-11.373
▁кредитов	-11.3731
әсәләре	-11.3733
▁сделан	-11.3736
▁качественн	-11.374
▁открыва	-11.3743
▁Ибраһимов	-11.3743
▁водителей	-11.3744
технология	-11.3744
ғәҙәт	-11.3744
▁аптыра	-11.3744
▁редакцияһы	-11.3746
АЛИ	-11.3746
▁свод	-11.3747
▁Году	-11.3748
ОЛЬ	-11.3749
▁наградил	-11.375
мисс	-11.3751
▁разряд	-11.3753
▁Рауил	-11.3753
▁последних	-11.3753
ВДНХ	-11.3753
▁спокойно	-11.3753
▁Танабай	-11.3753
▁Әҙәбиәт	-11.3753
▁Соответствующее	-11.3753
▁шорт	-11.3753
▁Эх	-11.3753
▁способствовать	-11.3753
▁береһен	-11.3754
est	-11.3755
центра	-11.3755
▁привлечь	-11.3755
▁урожайность	-11.3756
УЗ	-11.3756
▁АР	-11.3756
окис	-11.3757
▁крупно	-11.3757
▁биләү	-11.3757
▁һауыҡтырыу	-11.3758
▁бумаг	-11.3759
▁1913	-11.3761
▁һаҡланыу	-11.3763
▁инек	-11.3763
кей	-11.3764
▁хуп	-11.3764
▁йөрөтөү	-11.3765
▁хоҡуғына	-11.3766
▁һүҙен	-11.3766
▁ассоциация	-11.3766
▁тормошонда	-11.3768
▁цеха	-11.3769
▁Европе	-11.377
▁армияһы	-11.377
3)	-11.377
елдең	-11.3771
▁принес	-11.3772
▁мере	-11.3773
[...]
